{
  "version": "1.0",
  "truncation": {
    "direction": "Right",
    "max_length": 160,
    "strategy": "LongestFirst",
    "stride": 0
  },
  "padding": {
    "strategy": {
      "Fixed": 160
    },
    "direction": "Right",
    "pad_to_multiple_of": null,
    "pad_id": 3,
    "pad_type_id": 0,
    "pad_token": "[PAD]"
  },
  "added_tokens": [
    {
      "id": 0,
      "content": "[UNK]",
      "single_word": false,
      "lstrip": false,
      "rstrip": false,
      "normalized": false,
      "special": true
    },
    {
      "id": 1,
      "content": "[CLS]",
      "single_word": false,
      "lstrip": false,
      "rstrip": false,
      "normalized": false,
      "special": true
    },
    {
      "id": 2,
      "content": "[SEP]",
      "single_word": false,
      "lstrip": false,
      "rstrip": false,
      "normalized": false,
      "special": true
    },
    {
      "id": 3,
      "content": "[PAD]",
      "single_word": false,
      "lstrip": false,
      "rstrip": false,
      "normalized": false,
      "special": true
    },
    {
      "id": 4,
      "content": "[MASK]",
      "single_word": false,
      "lstrip": false,
      "rstrip": false,
      "normalized": false,
      "special": true
    }
  ],
  "normalizer": null,
  "pre_tokenizer": {
    "type": "Whitespace"
  },
  "post_processor": {
    "type": "TemplateProcessing",
    "single": [
      {
        "SpecialToken": {
          "id": "[CLS]",
          "type_id": 0
        }
      },
      {
        "Sequence": {
          "id": "A",
          "type_id": 0
        }
      },
      {
        "SpecialToken": {
          "id": "[SEP]",
          "type_id": 0
        }
      }
    ],
    "pair": [
      {
        "SpecialToken": {
          "id": "[CLS]",
          "type_id": 0
        }
      },
      {
        "Sequence": {
          "id": "A",
          "type_id": 0
        }
      },
      {
        "SpecialToken": {
          "id": "[SEP]",
          "type_id": 0
        }
      },
      {
        "Sequence": {
          "id": "B",
          "type_id": 1
        }
      },
      {
        "SpecialToken": {
          "id": "[SEP]",
          "type_id": 1
        }
      }
    ],
    "special_tokens": {
      "[CLS]": {
        "id": "[CLS]",
        "ids": [
          1
        ],
        "tokens": [
          "[CLS]"
        ]
      },
      "[SEP]": {
        "id": "[SEP]",
        "ids": [
          2
        ],
        "tokens": [
          "[SEP]"
        ]
      }
    }
  },
  "decoder": null,
  "model": {
    "type": "WordPiece",
    "unk_token": "[UNK]",
    "continuing_subword_prefix": "##",
    "max_input_chars_per_word": 100,
    "vocab": {
      "[UNK]": 0,
      "[CLS]": 1,
      "[SEP]": 2,
      "[PAD]": 3,
      "[MASK]": 4,
      "!": 5,
      "\"": 6,
      "#": 7,
      "$": 8,
      "%": 9,
      "&": 10,
      "'": 11,
      "(": 12,
      ")": 13,
      "*": 14,
      "+": 15,
      ",": 16,
      "-": 17,
      ".": 18,
      "/": 19,
      "0": 20,
      "1": 21,
      "2": 22,
      "3": 23,
      "4": 24,
      "5": 25,
      "6": 26,
      "7": 27,
      "8": 28,
      "9": 29,
      ":": 30,
      ";": 31,
      "<": 32,
      "=": 33,
      ">": 34,
      "?": 35,
      "@": 36,
      "A": 37,
      "B": 38,
      "C": 39,
      "D": 40,
      "E": 41,
      "F": 42,
      "G": 43,
      "H": 44,
      "I": 45,
      "J": 46,
      "K": 47,
      "L": 48,
      "M": 49,
      "N": 50,
      "O": 51,
      "P": 52,
      "Q": 53,
      "R": 54,
      "S": 55,
      "T": 56,
      "U": 57,
      "V": 58,
      "W": 59,
      "X": 60,
      "Y": 61,
      "Z": 62,
      "[": 63,
      "\\": 64,
      "]": 65,
      "_": 66,
      "a": 67,
      "b": 68,
      "c": 69,
      "d": 70,
      "e": 71,
      "f": 72,
      "g": 73,
      "h": 74,
      "i": 75,
      "l": 76,
      "m": 77,
      "n": 78,
      "o": 79,
      "p": 80,
      "r": 81,
      "s": 82,
      "t": 83,
      "u": 84,
      "v": 85,
      "w": 86,
      "x": 87,
      "y": 88,
      "z": 89,
      "~": 90,
      "£": 91,
      "¯": 92,
      "´": 93,
      "·": 94,
      "½": 95,
      "α": 96,
      "आ": 97,
      "ई": 98,
      "ए": 99,
      "ग": 100,
      "झ": 101,
      "न": 102,
      "।": 103,
      "२": 104,
      "३": 105,
      "​": 106,
      "‍": 107,
      "‎": 108,
      "–": 109,
      "—": 110,
      "‘": 111,
      "’": 112,
      "“": 113,
      "”": 114,
      "•": 115,
      "…": 116,
      "€": 117,
      "●": 118,
      "❤": 119,
      "➡": 120,
      "ツ": 121,
      "️": 122,
      "🎓": 123,
      "👩": 124,
      "💕": 125,
      "😇": 126,
      "😔": 127,
      "😟": 128,
      "😦": 129,
      "🙂": 130,
      "🙄": 131,
      "##ल": 132,
      "##o": 133,
      "##a": 134,
      "##m": 135,
      "##e": 136,
      "##n": 137,
      "##g": 138,
      "##l": 139,
      "##3": 140,
      "##C": 141,
      "##H": 142,
      "##O": 143,
      "##ा": 144,
      "##ं": 145,
      "##ट": 146,
      "##t": 147,
      "##u": 148,
      "##b": 149,
      "##न": 150,
      "##य": 151,
      "##ो": 152,
      "##र": 153,
      "##y": 154,
      "##i": 155,
      "##d": 156,
      "##h": 157,
      "##r": 158,
      "##k": 159,
      "##s": 160,
      "##p": 161,
      "##ी": 162,
      "##स": 163,
      "##ु": 164,
      "##क": 165,
      "##ण": 166,
      "##ड": 167,
      "##v": 168,
      "##़": 169,
      "##म": 170,
      "##w": 171,
      "##z": 172,
      "##c": 173,
      "##े": 174,
      "##f": 175,
      "##1": 176,
      "##7": 177,
      "##2": 178,
      "##ब": 179,
      "##फ": 180,
      "##ए": 181,
      "##E": 182,
      "##J": 183,
      "##झ": 184,
      "##x": 185,
      "##4": 186,
      "##0": 187,
      "##5": 188,
      "##q": 189,
      "##_": 190,
      "##6": 191,
      "##A": 192,
      "##I": 193,
      "##R": 194,
      "##P": 195,
      "##N": 196,
      "##G": 197,
      "##T": 198,
      "##V": 199,
      "##L": 200,
      "##D": 201,
      "##S": 202,
      "##8": 203,
      "##B": 204,
      "##X": 205,
      "##M": 206,
      "##K": 207,
      "##U": 208,
      "##é": 209,
      "##\"": 210,
      "##.": 211,
      "##W": 212,
      "##F": 213,
      "##Y": 214,
      "##”": 215,
      "##,": 216,
      "##Z": 217,
      "##)": 218,
      "##(": 219,
      "##'": 220,
      "##:": 221,
      "##ʻ": 222,
      "##?": 223,
      "##-": 224,
      "##*": 225,
      "##+": 226,
      "##$": 227,
      "##!": 228,
      "##>": 229,
      "###": 230,
      "##—": 231,
      "##]": 232,
      "##“": 233,
      "##[": 234,
      "##/": 235,
      "##<": 236,
      "##^": 237,
      "##\\": 238,
      "##~": 239,
      "##️": 240,
      "##😔": 241,
      "##¯": 242,
      "en": 243,
      "##he": 244,
      "the": 245,
      "##er": 246,
      "##in": 247,
      "##at": 248,
      "##an": 249,
      "##on": 250,
      "##en": 251,
      "##ar": 252,
      "##ed": 253,
      "##es": 254,
      "##or": 255,
      "##al": 256,
      "##nd": 257,
      "##is": 258,
      "##as": 259,
      "in": 260,
      "of": 261,
      "##it": 262,
      "##ing": 263,
      "to": 264,
      "##re": 265,
      "##il": 266,
      "and": 267,
      "##ic": 268,
      "##ion": 269,
      "##om": 270,
      "##ent": 271,
      "hi": 272,
      "th": 273,
      "##ad": 274,
      "##am": 275,
      "ta": 276,
      "##id": 277,
      "##el": 278,
      "The": 279,
      "be": 280,
      "is": 281,
      "##ot": 282,
      "##ur": 283,
      "के": 284,
      "##ay": 285,
      "##le": 286,
      "te": 287,
      "##ol": 288,
      "##ct": 289,
      "##ir": 290,
      "kn": 291,
      "##st": 292,
      "##et": 293,
      "##ut": 294,
      "on": 295,
      "है": 296,
      "for": 297,
      "##ter": 298,
      "##ver": 299,
      "##ch": 300,
      "##ation": 301,
      "pr": 302,
      "##ow": 303,
      "re": 304,
      "##ak": 305,
      "as": 306,
      "##ला": 307,
      "sa": 308,
      "##या": 309,
      "st": 310,
      "##ों": 311,
      "##ता": 312,
      "gu": 313,
      "##ने": 314,
      "##ce": 315,
      "##od": 316,
      "में": 317,
      "pa": 318,
      "##िक": 319,
      "al": 320,
      "or": 321,
      "##ul": 322,
      "that": 323,
      "##ig": 324,
      "##ha": 325,
      "##ना": 326,
      "was": 327,
      "##ly": 328,
      "##and": 329,
      "##us": 330,
      "की": 331,
      "##ले": 332,
      "##ag": 333,
      "कर": 334,
      "##ment": 335,
      "को": 336,
      "##os": 337,
      "##op": 338,
      "##est": 339,
      "##th": 340,
      "has": 341,
      "##um": 342,
      "##ers": 343,
      "का": 344,
      "are": 345,
      "##ess": 346,
      "##ra": 347,
      "##ित": 348,
      "##ist": 349,
      "an": 350,
      "##un": 351,
      "wh": 352,
      "with": 353,
      "##ही": 354,
      "कि": 355,
      "it": 356,
      "con": 357,
      "de": 358,
      "##ab": 359,
      "##pp": 360,
      "at": 361,
      "##ri": 362,
      "will": 363,
      "##ate": 364,
      "से": 365,
      "not": 366,
      "have": 367,
      "##our": 368,
      "और": 369,
      "पर": 370,
      "##ia": 371,
      "he": 372,
      "by": 373,
      "##ld": 374,
      "fr": 375,
      "##ud": 376,
      "##ice": 377,
      "##art": 378,
      "Ind": 379,
      "ने": 380,
      "हो": 381,
      "##ant": 382,
      "20": 383,
      "##मा": 384,
      "from": 385,
      "##ere": 386,
      "this": 387,
      "##ac": 388,
      "##em": 389,
      "##ht": 390,
      "##ort": 391,
      "##oc": 392,
      "##if": 393,
      "said": 394,
      "##ity": 395,
      "He": 396,
      "##ies": 397,
      "su": 398,
      "been": 399,
      "##ik": 400,
      "##ang": 401,
      "go": 402,
      "##end": 403,
      "##se": 404,
      "you": 405,
      "##ore": 406,
      "##so": 407,
      "sh": 408,
      "##ect": 409,
      "##ap": 410,
      "ex": 411,
      "##all": 412,
      "##ister": 413,
      "also": 414,
      "##ते": 415,
      "इस": 416,
      "his": 417,
      "##ive": 418,
      "##ath": 419,
      "##री": 420,
      "were": 421,
      "##ah": 422,
      "##nt": 423,
      "wor": 424,
      "##ial": 425,
      "le": 426,
      "##ard": 427,
      "##cc": 428,
      "In": 429,
      "sp": 430,
      "It": 431,
      "India": 432,
      "हैं": 433,
      "एक": 434,
      "##ast": 435,
      "##ep": 436,
      "##ry": 437,
      "##ime": 438,
      "ag": 439,
      "##00": 440,
      "##ind": 441,
      "##ome": 442,
      "##mp": 443,
      "pl": 444,
      "##ction": 445,
      "we": 446,
      "all": 447,
      "##ian": 448,
      "do": 449,
      "inc": 450,
      "##ated": 451,
      "had": 452,
      "ab": 453,
      "##ight": 454,
      "pe": 455,
      "##ue": 456,
      "##one": 457,
      "##ear": 458,
      "##ident": 459,
      "##ress": 460,
      "##ef": 461,
      "##ary": 462,
      "##ous": 463,
      "me": 464,
      "ur": 465,
      "ar": 466,
      "##ople": 467,
      "##ase": 468,
      "Ch": 469,
      "या": 470,
      "##िया": 471,
      "##ड़": 472,
      "##ell": 473,
      "can": 474,
      "ad": 475,
      "सा": 476,
      "दे": 477,
      "##ure": 478,
      "##ya": 479,
      "##ob": 480,
      "##ंग": 481,
      "##out": 482,
      "their": 483,
      "##ff": 484,
      "##age": 485,
      "##ach": 486,
      "19": 487,
      "who": 488,
      "This": 489,
      "##ew": 490,
      "comp": 491,
      "people": 492,
      "Wh": 493,
      "भी": 494,
      "man": 495,
      "##han": 496,
      "लिए": 497,
      "up": 498,
      "जा": 499,
      "##ence": 500,
      "##ire": 501,
      "part": 502,
      "##ame": 503,
      "##सी": 504,
      "##ec": 505,
      "##wo": 506,
      "##ish": 507,
      "off": 508,
      "##ip": 509,
      "they": 510,
      "##ide": 511,
      "police": 512,
      "them": 513,
      "##ge": 514,
      "cr": 515,
      "fil": 516,
      "अप": 517,
      "per": 518,
      "##ine": 519,
      "कार": 520,
      "But": 521,
      "St": 522,
      "##up": 523,
      "##ult": 524,
      "other": 525,
      "dis": 526,
      "out": 527,
      "##रे": 528,
      "cont": 529,
      "##ber": 530,
      "one": 531,
      "##ays": 532,
      "##ank": 533,
      "##orm": 534,
      "##ition": 535,
      "##ord": 536,
      "##ub": 537,
      "Al": 538,
      "As": 539,
      "##ond": 540,
      "there": 541,
      "acc": 542,
      "again": 543,
      "work": 544,
      "##ile": 545,
      "नहीं": 546,
      "##ical": 547,
      "##ations": 548,
      "##ack": 549,
      "no": 550,
      "so": 551,
      "government": 552,
      "which": 553,
      "us": 554,
      "##ace": 555,
      "##ose": 556,
      "किया": 557,
      "app": 558,
      "##ade": 559,
      "We": 560,
      "##uc": 561,
      "यह": 562,
      "un": 563,
      "cl": 564,
      "##ance": 565,
      "##ass": 566,
      "rel": 567,
      "am": 568,
      "##iz": 569,
      "under": 570,
      "him": 571,
      "10": 572,
      "exp": 573,
      "about": 574,
      "time": 575,
      "##ug": 576,
      ".\"": 577,
      "rep": 578,
      "##ash": 579,
      "int": 580,
      "There": 581,
      "year": 582,
      "over": 583,
      "##दा": 584,
      "her": 585,
      "after": 586,
      "How": 587,
      "film": 588,
      "ही": 589,
      "##app": 590,
      "sc": 591,
      "two": 592,
      "reg": 593,
      "##ions": 594,
      "pres": 595,
      "##oy": 596,
      "imp": 597,
      "##ents": 598,
      "##erv": 599,
      "any": 600,
      "##own": 601,
      "your": 602,
      "कहा": 603,
      "state": 604,
      "##ely": 605,
      "new": 606,
      "against": 607,
      "ले": 608,
      "count": 609,
      "##int": 610,
      "##aw": 611,
      "but": 612,
      "its": 613,
      "##ana": 614,
      "आप": 615,
      "पा": 616,
      "##ens": 617,
      "##ook": 618,
      "##ign": 619,
      "##are": 620,
      "##ual": 621,
      "comm": 622,
      "हम": 623,
      "lead": 624,
      "##ood": 625,
      "rec": 626,
      "मह": 627,
      "##rict": 628,
      "तो": 629,
      "##ious": 630,
      "##day": 631,
      "##ied": 632,
      "Indian": 633,
      "##able": 634,
      "##ons": 635,
      "att": 636,
      "##ates": 637,
      "##pt": 638,
      "),": 639,
      "##ings": 640,
      "उन": 641,
      "first": 642,
      "They": 643,
      "##form": 644,
      "dec": 645,
      "##ital": 646,
      "दो": 647,
      "##ियों": 648,
      "जो": 649,
      "##very": 650,
      "should": 651,
      "case": 652,
      "गया": 653,
      "On": 654,
      "करने": 655,
      "inv": 656,
      "##other": 657,
      "more": 658,
      "##ife": 659,
      "##ee": 660,
      "What": 661,
      "##..": 662,
      "##amp": 663,
      "था": 664,
      "our": 665,
      "would": 666,
      "Cong": 667,
      "##ery": 668,
      "Am": 669,
      "##und": 670,
      "being": 671,
      "12": 672,
      "pre": 673,
      "##act": 674,
      "sec": 675,
      "Un": 676,
      "##arm": 677,
      "##old": 678,
      "साथ": 679,
      "An": 680,
      "Mod": 681,
      "##ourt": 682,
      "inter": 683,
      "did": 684,
      "##lic": 685,
      "qu": 686,
      "##uring": 687,
      "##ities": 688,
      "##uv": 689,
      "##we": 690,
      "##ram": 691,
      "15": 692,
      "pers": 693,
      "Go": 694,
      "##ont": 695,
      "##ek": 696,
      "what": 697,
      "##ey": 698,
      "##गी": 699,
      "##ite": 700,
      "##osp": 701,
      "day": 702,
      "उस": 703,
      "my": 704,
      "##ेट": 705,
      "med": 706,
      "##ory": 707,
      "ro": 708,
      "some": 709,
      "And": 710,
      "##ased": 711,
      "when": 712,
      "get": 713,
      "country": 714,
      "##man": 715,
      "##les": 716,
      "into": 717,
      "मि": 718,
      "##li": 719,
      "##ise": 720,
      "सी": 721,
      "##vel": 722,
      "##oun": 723,
      "made": 724,
      "##hip": 725,
      "bet": 726,
      "cent": 727,
      "gr": 728,
      "form": 729,
      "##der": 730,
      "rem": 731,
      "bl": 732,
      "##ma": 733,
      "##iver": 734,
      "##ro": 735,
      "वे": 736,
      "ये": 737,
      "Man": 738,
      "God": 739,
      "##sh": 740,
      "##ert": 741,
      "add": 742,
      "she": 743,
      "##ested": 744,
      "##ward": 745,
      "act": 746,
      "##ock": 747,
      "need": 748,
      "All": 749,
      "However": 750,
      "only": 751,
      "##गे": 752,
      "##oh": 753,
      "##ict": 754,
      "लोग": 755,
      "ass": 756,
      "11": 757,
      "such": 758,
      "अधिक": 759,
      "Ar": 760,
      "Police": 761,
      "##डी": 762,
      "...": 763,
      "ind": 764,
      "##ick": 765,
      "You": 766,
      "op": 767,
      "like": 768,
      "know": 769,
      "district": 770,
      "very": 771,
      "##ink": 772,
      "##anc": 773,
      "child": 774,
      "many": 775,
      "if": 776,
      "prov": 777,
      "##ally": 778,
      "She": 779,
      "सो": 780,
      "##way": 781,
      "str": 782,
      "then": 783,
      "these": 784,
      "than": 785,
      "प्रति": 786,
      "##me": 787,
      "##ati": 788,
      "po": 789,
      "report": 790,
      "ph": 791,
      "##az": 792,
      "meet": 793,
      "wr": 794,
      "##gan": 795,
      "हे": 796,
      "every": 797,
      "रहे": 798,
      "200": 799,
      "famil": 800,
      "resp": 801,
      "##ged": 802,
      "##ating": 803,
      "##ft": 804,
      "##ओं": 805,
      "co": 806,
      "how": 807,
      "taken": 808,
      "##ments": 809,
      "##ody": 810,
      "##ren": 811,
      "##eg": 812,
      "##ured": 813,
      "play": 814,
      "देश": 815,
      "##ible": 816,
      "good": 817,
      "tra": 818,
      "incident": 819,
      "जी": 820,
      "18": 821,
      "वह": 822,
      "दिया": 823,
      "car": 824,
      "three": 825,
      "cons": 826,
      "New": 827,
      "##cted": 828,
      "##med": 829,
      "##als": 830,
      "take": 831,
      "बी": 832,
      "start": 833,
      "world": 834,
      "सक": 835,
      "बाद": 836,
      "##elf": 837,
      "pro": 838,
      "##rib": 839,
      "##uch": 840,
      "##ised": 841,
      "##ently": 842,
      "000": 843,
      "mon": 844,
      "##ats": 845,
      "invest": 846,
      "help": 847,
      "##alk": 848,
      "14": 849,
      "##ited": 850,
      "dire": 851,
      "So": 852,
      "cond": 853,
      "दी": 854,
      "##ission": 855,
      "##ful": 856,
      "supp": 857,
      "##20": 858,
      "Is": 859,
      "fe": 860,
      "कार्य": 861,
      "##ka": 862,
      "par": 863,
      "30": 864,
      "उन्होंने": 865,
      "##ama": 866,
      "during": 867,
      "अपने": 868,
      "life": 869,
      "##शन": 870,
      "##ors": 871,
      "##ie": 872,
      "last": 873,
      "between": 874,
      "25": 875,
      "through": 876,
      "those": 877,
      "come": 878,
      "##ina": 879,
      "For": 880,
      "water": 881,
      "##ret": 882,
      "present": 883,
      "तक": 884,
      "##ener": 885,
      "Ma": 886,
      "13": 887,
      "years": 888,
      "ter": 889,
      "##hes": 890,
      "##ouse": 891,
      "say": 892,
      "##ices": 893,
      "person": 894,
      "##ember": 895,
      "##wn": 896,
      "Government": 897,
      "hand": 898,
      "गु": 899,
      "##xt": 900,
      "dep": 901,
      "##ars": 902,
      "dr": 903,
      "bel": 904,
      "##res": 905,
      "##ness": 906,
      "call": 907,
      "prob": 908,
      "cor": 909,
      "fin": 910,
      "आय": 911,
      "16": 912,
      "##na": 913,
      "well": 914,
      "##chool": 915,
      "काम": 916,
      "##ng": 917,
      "hospital": 918,
      "number": 919,
      "##ures": 920,
      "want": 921,
      "sub": 922,
      "family": 923,
      "हुए": 924,
      "even": 925,
      "No": 926,
      "disc": 927,
      "could": 928,
      "गई": 929,
      "inform": 930,
      "while": 931,
      "##ets": 932,
      "party": 933,
      "ann": 934,
      "##air": 935,
      "थी": 936,
      "av": 937,
      "here": 938,
      "##let": 939,
      "im": 940,
      "##eb": 941,
      "post": 942,
      "ear": 943,
      "17": 944,
      "50": 945,
      "##read": 946,
      "पुलिस": 947,
      "राज्य": 948,
      "cap": 949,
      "##ided": 950,
      "des": 951,
      "##olog": 952,
      "kill": 953,
      "Jehovah": 954,
      "##ale": 955,
      "sm": 956,
      "just": 957,
      "पी": 958,
      "##ives": 959,
      "make": 960,
      "##ix": 961,
      "team": 962,
      "##ck": 963,
      "##igh": 964,
      "place": 965,
      ").": 966,
      "थे": 967,
      "back": 968,
      "set": 969,
      "##ght": 970,
      "State": 971,
      "minister": 972,
      "develop": 973,
      "does": 974,
      "रहा": 975,
      "##ues": 976,
      "##बर": 977,
      "arrested": 978,
      "मौ": 979,
      "ask": 980,
      "accused": 981,
      "##ters": 982,
      "Kumar": 983,
      "If": 984,
      "official": 985,
      "Sp": 986,
      "##iev": 987,
      "right": 988,
      "जिस": 989,
      "death": 990,
      "court": 991,
      "before": 992,
      "id": 993,
      "##ali": 994,
      "bu": 995,
      "देख": 996,
      "due": 997,
      "बता": 998,
      "वर्ष": 999,
      "##िंग": 1000,
      "##ivers": 1001,
      "may": 1002,
      "##िट": 1003,
      "follow": 1004,
      "##ative": 1005,
      "pass": 1006,
      "days": 1007,
      "where": 1008,
      "most": 1009,
      "##orn": 1010,
      "differ": 1011,
      "सब": 1012,
      "month": 1013,
      "meeting": 1014,
      "ret": 1015,
      "given": 1016,
      "children": 1017,
      "##सार": 1018,
      "##aking": 1019,
      "##ection": 1020,
      "24": 1021,
      "took": 1022,
      "##ines": 1023,
      "sur": 1024,
      "रूप": 1025,
      "##्स": 1026,
      "लोगों": 1027,
      "रही": 1028,
      "##pr": 1029,
      "today": 1030,
      "bus": 1031,
      "गो": 1032,
      "जब": 1033,
      "##ists": 1034,
      "At": 1035,
      "ser": 1036,
      "eff": 1037,
      "same": 1038,
      "sit": 1039,
      "##ve": 1040,
      "Pun": 1041,
      "##ince": 1042,
      "100": 1043,
      "मान": 1044,
      "##ote": 1045,
      "##led": 1046,
      "होता": 1047,
      "four": 1048,
      "US": 1049,
      "होते": 1050,
      "import": 1051,
      "रह": 1052,
      "high": 1053,
      "##ened": 1054,
      "##lem": 1055,
      "prop": 1056,
      "social": 1057,
      "आज": 1058,
      "farm": 1059,
      "way": 1060,
      "look": 1061,
      "down": 1062,
      "media": 1063,
      "Court": 1064,
      "कुछ": 1065,
      "found": 1066,
      "trans": 1067,
      "long": 1068,
      "टी": 1069,
      "##लो": 1070,
      "इन": 1071,
      "##ism": 1072,
      "##sp": 1073,
      "बात": 1074,
      "end": 1075,
      "health": 1076,
      "Sha": 1077,
      "ob": 1078,
      "PM": 1079,
      "मैं": 1080,
      "law": 1081,
      "det": 1082,
      "ed": 1083,
      "मुख्य": 1084,
      "21": 1085,
      "##red": 1086,
      "mark": 1087,
      "गए": 1088,
      "inf": 1089,
      "used": 1090,
      "##ough": 1091,
      "क्षेत्र": 1092,
      "see": 1093,
      "##ries": 1094,
      "attack": 1095,
      "करते": 1096,
      "##ins": 1097,
      "##ried": 1098,
      "including": 1099,
      "##get": 1100,
      "cases": 1101,
      "register": 1102,
      "Sec": 1103,
      "now": 1104,
      "women": 1105,
      "##ven": 1106,
      "जान": 1107,
      "house": 1108,
      "home": 1109,
      "quest": 1110,
      "president": 1111,
      "##ants": 1112,
      "second": 1113,
      "कोई": 1114,
      "##irl": 1115,
      "##ered": 1116,
      "injured": 1117,
      "लग": 1118,
      "students": 1119,
      "##osed": 1120,
      "going": 1121,
      "After": 1122,
      "sever": 1123,
      "held": 1124,
      "बना": 1125,
      "##par": 1126,
      "def": 1127,
      "##oint": 1128,
      "show": 1129,
      "power": 1130,
      "too": 1131,
      "problem": 1132,
      "##iness": 1133,
      "बन": 1134,
      "कम": 1135,
      "##डा": 1136,
      "##orts": 1137,
      "Ex": 1138,
      "Dep": 1139,
      "Wor": 1140,
      "started": 1141,
      "fac": 1142,
      "both": 1143,
      "That": 1144,
      "emp": 1145,
      "school": 1146,
      "##ern": 1147,
      "conf": 1148,
      "##cept": 1149,
      "own": 1150,
      "##tt": 1151,
      "Dr": 1152,
      "organ": 1153,
      "##ands": 1154,
      "##ute": 1155,
      "Me": 1156,
      "His": 1157,
      "National": 1158,
      "ext": 1159,
      "result": 1160,
      "इसके": 1161,
      "body": 1162,
      "registered": 1163,
      "cle": 1164,
      "proc": 1165,
      "होती": 1166,
      "old": 1167,
      "पहले": 1168,
      "When": 1169,
      "others": 1170,
      "sent": 1171,
      "##ended": 1172,
      "##ined": 1173,
      "among": 1174,
      "che": 1175,
      "##rick": 1176,
      "cre": 1177,
      "##ane": 1178,
      "##वाद": 1179,
      "द्वारा": 1180,
      "requ": 1181,
      "##ph": 1182,
      "order": 1183,
      "Cor": 1184,
      "लेकिन": 1185,
      "##over": 1186,
      "support": 1187,
      "22": 1188,
      "हर": 1189,
      "alle": 1190,
      "conc": 1191,
      "##ces": 1192,
      "different": 1193,
      "came": 1194,
      "कह": 1195,
      "city": 1196,
      "##ages": 1197,
      "Union": 1198,
      "Sc": 1199,
      "matter": 1200,
      "read": 1201,
      "##ुक": 1202,
      "temp": 1203,
      "area": 1204,
      "road": 1205,
      "रो": 1206,
      "##kk": 1207,
      "sl": 1208,
      "much": 1209,
      "aff": 1210,
      "former": 1211,
      "leader": 1212,
      "del": 1213,
      "head": 1214,
      "##ety": 1215,
      "run": 1216,
      "killed": 1217,
      "##osition": 1218,
      "occas": 1219,
      "उनके": 1220,
      "##ified": 1221,
      "Bang": 1222,
      "##ized": 1223,
      "next": 1224,
      "किसी": 1225,
      "अपनी": 1226,
      "bo": 1227,
      "name": 1228,
      "pur": 1229,
      "होने": 1230,
      "Do": 1231,
      "members": 1232,
      "gl": 1233,
      "##ll": 1234,
      "far": 1235,
      "regard": 1236,
      "वाले": 1237,
      "done": 1238,
      "em": 1239,
      "पूर्व": 1240,
      "complet": 1241,
      "died": 1242,
      "##ड़ी": 1243,
      "colle": 1244,
      "each": 1245,
      "use": 1246,
      "public": 1247,
      "won": 1248,
      "important": 1249,
      "2019": 1250,
      "situation": 1251,
      "कारण": 1252,
      "near": 1253,
      "Hind": 1254,
      "spot": 1255,
      "shall": 1256,
      "##ump": 1257,
      "40": 1258,
      "action": 1259,
      "must": 1260,
      "sign": 1261,
      "great": 1262,
      "son": 1263,
      "min": 1264,
      "Act": 1265,
      "occasion": 1266,
      "##eal": 1267,
      "called": 1268,
      "समय": 1269,
      "##ting": 1270,
      "##ination": 1271,
      "yet": 1272,
      "##ration": 1273,
      "village": 1274,
      "##ished": 1275,
      "few": 1276,
      "##aim": 1277,
      "later": 1278,
      "##ead": 1279,
      "mod": 1280,
      "Why": 1281,
      "asked": 1282,
      "away": 1283,
      "Its": 1284,
      "बढ़": 1285,
      "क्या": 1286,
      "##els": 1287,
      "##vi": 1288,
      "23": 1289,
      "##ering": 1290,
      "several": 1291,
      "##udd": 1292,
      "reported": 1293,
      "One": 1294,
      "##ran": 1295,
      "says": 1296,
      "because": 1297,
      "मिल": 1298,
      "Christ": 1299,
      "seen": 1300,
      "various": 1301,
      "girl": 1302,
      "farmers": 1303,
      "व्यक्त": 1304,
      "बार": 1305,
      "Eng": 1306,
      "love": 1307,
      "around": 1308,
      "got": 1309,
      "avail": 1310,
      "##ched": 1311,
      "दिन": 1312,
      "air": 1313,
      "land": 1314,
      "elections": 1315,
      "another": 1316,
      "think": 1317,
      "decision": 1318,
      "काय": 1319,
      "Pat": 1320,
      "big": 1321,
      "हुई": 1322,
      "##ope": 1323,
      "father": 1324,
      "##ple": 1325,
      "laun": 1326,
      "##iving": 1327,
      "##ached": 1328,
      "five": 1329,
      "2018": 1330,
      "सभी": 1331,
      "##ient": 1332,
      "##ought": 1333,
      "let": 1334,
      "अन्य": 1335,
      "##LA": 1336,
      "give": 1337,
      "issue": 1338,
      "Ag": 1339,
      "##ology": 1340,
      "friend": 1341,
      "##ys": 1342,
      "##oci": 1343,
      "तुम": 1344,
      "along": 1345,
      "हुआ": 1346,
      "become": 1347,
      "Sa": 1348,
      "मन": 1349,
      "system": 1350,
      "घर": 1351,
      "still": 1352,
      "sk": 1353,
      "book": 1354,
      "नाम": 1355,
      "World": 1356,
      "##iya": 1357,
      "talk": 1358,
      "money": 1359,
      "तरह": 1360,
      "treat": 1361,
      "soon": 1362,
      "Con": 1363,
      "##pl": 1364,
      "lot": 1365,
      "never": 1366,
      "video": 1367,
      "करो": 1368,
      "wife": 1369,
      "dont": 1370,
      "##oo": 1371,
      "According": 1372,
      "##erg": 1373,
      "special": 1374,
      "##ty": 1375,
      "project": 1376,
      "##ung": 1377,
      "red": 1378,
      "met": 1379,
      "28": 1380,
      "##त्व": 1381,
      "development": 1382,
      "ref": 1383,
      "sim": 1384,
      "fire": 1385,
      "succ": 1386,
      "information": 1387,
      "list": 1388,
      "जै": 1389,
      "##augh": 1390,
      "##port": 1391,
      "उन्हें": 1392,
      "##uck": 1393,
      "##land": 1394,
      "अब": 1395,
      "दर": 1396,
      "keep": 1397,
      "candid": 1398,
      "political": 1399,
      "High": 1400,
      "ma": 1401,
      "question": 1402,
      "things": 1403,
      "##inc": 1404,
      "##ieve": 1405,
      "mother": 1406,
      "##ges": 1407,
      "26": 1408,
      "Res": 1409,
      "महिला": 1410,
      "complaint": 1411,
      "mil": 1412,
      "फिर": 1413,
      "करना": 1414,
      "demand": 1415,
      "तीन": 1416,
      "sw": 1417,
      "art": 1418,
      "भाग": 1419,
      "शाम": 1420,
      "intern": 1421,
      "movie": 1422,
      "woman": 1423,
      "return": 1424,
      "level": 1425,
      "bank": 1426,
      "Jesus": 1427,
      "##arge": 1428,
      "process": 1429,
      "##athi": 1430,
      "मामले": 1431,
      "leg": 1432,
      "program": 1433,
      "group": 1434,
      "val": 1435,
      "These": 1436,
      "pop": 1437,
      "rest": 1438,
      "''": 1439,
      "food": 1440,
      "told": 1441,
      "visit": 1442,
      "week": 1443,
      "point": 1444,
      "since": 1445,
      "Part": 1446,
      "27": 1447,
      "##ready": 1448,
      "##ling": 1449,
      "national": 1450,
      "without": 1451,
      "आम": 1452,
      "CO": 1453,
      "allow": 1454,
      "पास": 1455,
      "बताया": 1456,
      "pay": 1457,
      "stand": 1458,
      "men": 1459,
      "कई": 1460,
      "further": 1461,
      "सद": 1462,
      "role": 1463,
      "success": 1464,
      "grow": 1465,
      "##ett": 1466,
      "31": 1467,
      "discuss": 1468,
      "विकास": 1469,
      "May": 1470,
      "##ept": 1471,
      "ins": 1472,
      "My": 1473,
      "across": 1474,
      "लाख": 1475,
      "##erc": 1476,
      "2017": 1477,
      "##line": 1478,
      "ap": 1479,
      "why": 1480,
      "total": 1481,
      "लगा": 1482,
      "already": 1483,
      "##ressed": 1484,
      "went": 1485,
      "countries": 1486,
      "beg": 1487,
      "चल": 1488,
      "camp": 1489,
      "real": 1490,
      "जाने": 1491,
      "##ising": 1492,
      "लिया": 1493,
      "होगा": 1494,
      "China": 1495,
      "35": 1496,
      "ट्र": 1497,
      "est": 1498,
      "known": 1499,
      "activ": 1500,
      "word": 1501,
      "major": 1502,
      "##my": 1503,
      "##rov": 1504,
      "sat": 1505,
      "dev": 1506,
      "500": 1507,
      "investigation": 1508,
      "open": 1509,
      "heart": 1510,
      "##फी": 1511,
      "करता": 1512,
      "##stand": 1513,
      "account": 1514,
      "best": 1515,
      "##illion": 1516,
      "Then": 1517,
      "build": 1518,
      "put": 1519,
      "turn": 1520,
      "terror": 1521,
      "बीच": 1522,
      "based": 1523,
      "जाता": 1524,
      "news": 1525,
      "move": 1526,
      "##reme": 1527,
      "available": 1528,
      "##ining": 1529,
      "Cha": 1530,
      "added": 1531,
      "claim": 1532,
      "announced": 1533,
      "विचार": 1534,
      "security": 1535,
      "##wood": 1536,
      "##not": 1537,
      "condition": 1538,
      "सकता": 1539,
      "##aks": 1540,
      "बहुत": 1541,
      "##iti": 1542,
      "received": 1543,
      "times": 1544,
      "local": 1545,
      "With": 1546,
      "areas": 1547,
      "##mi": 1548,
      "##urs": 1549,
      "##oke": 1550,
      "sing": 1551,
      "शामिल": 1552,
      "young": 1553,
      "To": 1554,
      "win": 1555,
      "accident": 1556,
      "दौरान": 1557,
      "treatment": 1558,
      "brother": 1559,
      "business": 1560,
      "cricket": 1561,
      "Just": 1562,
      "29": 1563,
      "eng": 1564,
      "एस": 1565,
      "##per": 1566,
      "##rying": 1567,
      "fun": 1568,
      "view": 1569,
      "Some": 1570,
      "चाहिए": 1571,
      "working": 1572,
      "Many": 1573,
      "gre": 1574,
      "##aa": 1575,
      "match": 1576,
      "cannot": 1577,
      "event": 1578,
      "states": 1579,
      "left": 1580,
      "दोनों": 1581,
      "##ेड": 1582,
      "60": 1583,
      "top": 1584,
      "som": 1585,
      "##ule": 1586,
      "##ipp": 1587,
      "unt": 1588,
      "मत": 1589,
      "exam": 1590,
      "Ph": 1591,
      "संबंध": 1592,
      "company": 1593,
      "उसके": 1594,
      "perform": 1595,
      "Every": 1596,
      "अल": 1597,
      "large": 1598,
      "night": 1599,
      "cost": 1600,
      "find": 1601,
      "किए": 1602,
      "##एं": 1603,
      "station": 1604,
      "##lish": 1605,
      "Department": 1606,
      "##ences": 1607,
      "pet": 1608,
      "Ed": 1609,
      "reached": 1610,
      "##**": 1611,
      "घटना": 1612,
      "six": 1613,
      "##ork": 1614,
      "press": 1615,
      "small": 1616,
      "inst": 1617,
      "People": 1618,
      "care": 1619,
      "priv": 1620,
      "released": 1621,
      "record": 1622,
      "##fic": 1623,
      "respect": 1624,
      "आता": 1625,
      "विशेष": 1626,
      "jud": 1627,
      "##ones": 1628,
      "together": 1629,
      "साल": 1630,
      "टीम": 1631,
      "Fin": 1632,
      "hold": 1633,
      "Two": 1634,
      "Day": 1635,
      "शुरू": 1636,
      "filed": 1637,
      "##ST": 1638,
      "##पूर्ण": 1639,
      "West": 1640,
      "dead": 1641,
      "जारी": 1642,
      "बस": 1643,
      "South": 1644,
      "rain": 1645,
      "market": 1646,
      "##ival": 1647,
      "respons": 1648,
      "author": 1649,
      "##com": 1650,
      "योग": 1651,
      "##sel": 1652,
      "mus": 1653,
      "don": 1654,
      "Bible": 1655,
      "human": 1656,
      "led": 1657,
      "election": 1658,
      "making": 1659,
      "पार्टी": 1660,
      "##unt": 1661,
      "informed": 1662,
      "enter": 1663,
      "##yp": 1664,
      "workers": 1665,
      "भर": 1666,
      "cert": 1667,
      "office": 1668,
      "ant": 1669,
      "##la": 1670,
      "उनकी": 1671,
      "37": 1672,
      "suff": 1673,
      "class": 1674,
      "Health": 1675,
      "##less": 1676,
      "##eric": 1677,
      "taking": 1678,
      "##uly": 1679,
      "##iter": 1680,
      "term": 1681,
      "feel": 1682,
      "सकते": 1683,
      "बारे": 1684,
      "Im": 1685,
      "University": 1686,
      "equ": 1687,
      "##io": 1688,
      "exper": 1689,
      "चार": 1690,
      "##ily": 1691,
      "संघ": 1692,
      "2016": 1693,
      "clear": 1694,
      "lost": 1695,
      "##eed": 1696,
      "seats": 1697,
      "spirit": 1698,
      "change": 1699,
      "effect": 1700,
      "strong": 1701,
      "Party": 1702,
      "Air": 1703,
      "however": 1704,
      "क्यों": 1705,
      "third": 1706,
      "face": 1707,
      "##ner": 1708,
      "##ises": 1709,
      "field": 1710,
      "Home": 1711,
      "sol": 1712,
      "directed": 1713,
      "mind": 1714,
      "Utt": 1715,
      "खिलाफ": 1716,
      "Or": 1717,
      "##hu": 1718,
      "सेवा": 1719,
      "सबसे": 1720,
      "concern": 1721,
      "fight": 1722,
      "हजार": 1723,
      "earth": 1724,
      "always": 1725,
      "following": 1726,
      "free": 1727,
      "past": 1728,
      "अंत": 1729,
      "Central": 1730,
      "##ika": 1731,
      "langu": 1732,
      "##que": 1733,
      "Sri": 1734,
      "45": 1735,
      "##inal": 1736,
      "education": 1737,
      "##sc": 1738,
      "उसे": 1739,
      "##ीय": 1740,
      "##ending": 1741,
      "till": 1742,
      "issued": 1743,
      "##aring": 1744,
      "entire": 1745,
      "उत्तर": 1746,
      "Mo": 1747,
      "happened": 1748,
      "able": 1749,
      "period": 1750,
      "##ying": 1751,
      "32": 1752,
      "relations": 1753,
      "Not": 1754,
      "main": 1755,
      "##ony": 1756,
      "months": 1757,
      "आधार": 1758,
      "reason": 1759,
      "series": 1760,
      "exc": 1761,
      "job": 1762,
      "bring": 1763,
      "deb": 1764,
      "daughter": 1765,
      "serious": 1766,
      "doing": 1767,
      "##hag": 1768,
      "Bo": 1769,
      "ens": 1770,
      "provide": 1771,
      "parents": 1772,
      "योजना": 1773,
      "whe": 1774,
      "Who": 1775,
      "##ves": 1776,
      "##ke": 1777,
      "prof": 1778,
      "प्रकार": 1779,
      "यू": 1780,
      "##hing": 1781,
      "पत्र": 1782,
      "step": 1783,
      "##ulation": 1784,
      "final": 1785,
      "youth": 1786,
      "तरी": 1787,
      "States": 1788,
      "चुनाव": 1789,
      "decided": 1790,
      "better": 1791,
      "remain": 1792,
      "coming": 1793,
      "light": 1794,
      "##of": 1795,
      "2014": 1796,
      "Br": 1797,
      "phot": 1798,
      "##olved": 1799,
      "Centre": 1800,
      "##uted": 1801,
      "##ila": 1802,
      "increase": 1803,
      "statement": 1804,
      "understand": 1805,
      "happen": 1806,
      "##ize": 1807,
      "बंद": 1808,
      "currently": 1809,
      "short": 1810,
      "Sw": 1811,
      "70": 1812,
      "--": 1813,
      "murder": 1814,
      "United": 1815,
      "fut": 1816,
      "स्थान": 1817,
      "कार्यक्रम": 1818,
      "##bs": 1819,
      "देने": 1820,
      "निर्माण": 1821,
      "जांच": 1822,
      "service": 1823,
      "problems": 1824,
      "जाएगा": 1825,
      "price": 1826,
      "front": 1827,
      "Cl": 1828,
      "accept": 1829,
      "##lam": 1830,
      "Add": 1831,
      "rap": 1832,
      "brought": 1833,
      "##itter": 1834,
      "became": 1835,
      "saying": 1836,
      "##ivil": 1837,
      "Both": 1838,
      "senior": 1839,
      "difficult": 1840,
      "learn": 1841,
      "continue": 1842,
      "##ium": 1843,
      "true": 1844,
      "##row": 1845,
      "war": 1846,
      "डी": 1847,
      "##ically": 1848,
      "Le": 1849,
      "ang": 1850,
      "comes": 1851,
      "full": 1852,
      "Be": 1853,
      "played": 1854,
      "##itten": 1855,
      "appear": 1856,
      "80": 1857,
      "peace": 1858,
      "temple": 1859,
      "possible": 1860,
      "##cy": 1861,
      "खा": 1862,
      "lives": 1863,
      "pict": 1864,
      "Trump": 1865,
      "tax": 1866,
      "करें": 1867,
      "runs": 1868,
      "Sam": 1869,
      "conv": 1870,
      "control": 1871,
      "दर्ज": 1872,
      "age": 1873,
      "mis": 1874,
      "रे": 1875,
      "More": 1876,
      "friends": 1877,
      "faith": 1878,
      "member": 1879,
      "spread": 1880,
      "##ches": 1881,
      "##hy": 1882,
      "kind": 1883,
      "##agement": 1884,
      "nothing": 1885,
      "सच": 1886,
      "likely": 1887,
      "recover": 1888,
      "within": 1889,
      "पक्ष": 1890,
      "Co": 1891,
      "इससे": 1892,
      "fact": 1893,
      "Her": 1894,
      "##wa": 1895,
      "dam": 1896,
      "services": 1897,
      "immediately": 1898,
      "international": 1899,
      "include": 1900,
      "husband": 1901,
      "##धे": 1902,
      "जानकारी": 1903,
      "enc": 1904,
      "phone": 1905,
      "##ential": 1906,
      "2015": 1907,
      "protest": 1908,
      "मुझे": 1909,
      "बैंक": 1910,
      "##go": 1911,
      "During": 1912,
      "bad": 1913,
      "provided": 1914,
      "future": 1915,
      "hard": 1916,
      "##men": 1917,
      "pray": 1918,
      "fear": 1919,
      "अधिकारी": 1920,
      "School": 1921,
      "Pre": 1922,
      "##वादी": 1923,
      "##ax": 1924,
      "private": 1925,
      "शहर": 1926,
      "tell": 1927,
      "##भर": 1928,
      "Develop": 1929,
      "tri": 1930,
      "Sub": 1931,
      "story": 1932,
      "Our": 1933,
      "##side": 1934,
      "##ami": 1935,
      "गिर": 1936,
      "hit": 1937,
      "राष्ट्रीय": 1938,
      "##ruct": 1939,
      "Bl": 1940,
      ",”": 1941,
      "fall": 1942,
      "##anda": 1943,
      "मार": 1944,
      "gave": 1945,
      "might": 1946,
      "75": 1947,
      "mot": 1948,
      "##ini": 1949,
      "teacher": 1950,
      "##ted": 1951,
      "expected": 1952,
      "shared": 1953,
      "upon": 1954,
      "less": 1955,
      "getting": 1956,
      "fund": 1957,
      "anything": 1958,
      "example": 1959,
      "issues": 1960,
      "##iety": 1961,
      "needs": 1962,
      "##ively": 1963,
      "ओर": 1964,
      "believe": 1965,
      "birth": 1966,
      "written": 1967,
      "live": 1968,
      "gold": 1969,
      "##illa": 1970,
      "Bab": 1971,
      "address": 1972,
      "et": 1973,
      "mess": 1974,
      "ऐसे": 1975,
      "thing": 1976,
      ",\"": 1977,
      "##ss": 1978,
      "release": 1979,
      "parties": 1980,
      "Koh": 1981,
      "सुरक्षा": 1982,
      "##ories": 1983,
      "ऐसा": 1984,
      "sector": 1985,
      "सदस्य": 1986,
      "hon": 1987,
      "places": 1988,
      "earlier": 1989,
      "cause": 1990,
      "##aster": 1991,
      "Committee": 1992,
      "कंपनी": 1993,
      "33": 1994,
      "song": 1995,
      "##gg": 1996,
      "happy": 1997,
      "##itation": 1998,
      "##iday": 1999,
      "एम": 2000,
      "##hat": 2001,
      "##hest": 2002,
      "##cts": 2003,
      "App": 2004,
      "poor": 2005,
      "seek": 2006,
      "general": 2007,
      "##pers": 2008,
      "While": 2009,
      "stay": 2010,
      "patients": 2011,
      "opt": 2012,
      "medical": 2013,
      "nation": 2014,
      "side": 2015,
      "##nes": 2016,
      "morning": 2017,
      "gone": 2018,
      "prices": 2019,
      "truth": 2020,
      "director": 2021,
      "##down": 2022,
      "Gods": 2023,
      "##ification": 2024,
      "Australia": 2025,
      "star": 2026,
      "बैठक": 2027,
      "wrong": 2028,
      "Now": 2029,
      "function": 2030,
      "oil": 2031,
      "lock": 2032,
      "प्रभाव": 2033,
      "towards": 2034,
      "जाग": 2035,
      "cam": 2036,
      "lo": 2037,
      "history": 2038,
      "##oud": 2039,
      "resident": 2040,
      "Thats": 2041,
      "##utes": 2042,
      "##isation": 2043,
      "प्राप्त": 2044,
      "deal": 2045,
      "recently": 2046,
      "million": 2047,
      "36": 2048,
      "behind": 2049,
      "plan": 2050,
      "connection": 2051,
      "हाल": 2052,
      "something": 2053,
      "aut": 2054,
      "जैसे": 2055,
      "amount": 2056,
      "समझ": 2057,
      "बोल": 2058,
      "300": 2059,
      "##och": 2060,
      "##aries": 2061,
      "##aled": 2062,
      "hours": 2063,
      "di": 2064,
      "loss": 2065,
      "ever": 2066,
      "College": 2067,
      "sold": 2068,
      "जीवन": 2069,
      "अनुसार": 2070,
      "Nov": 2071,
      "positive": 2072,
      "common": 2073,
      "increased": 2074,
      "##ras": 2075,
      "हमारे": 2076,
      "thought": 2077,
      "inn": 2078,
      "##ris": 2079,
      "lab": 2080,
      "##्‍य": 2081,
      "pan": 2082,
      "rate": 2083,
      "feat": 2084,
      "याद": 2085,
      "March": 2086,
      "संख्या": 2087,
      "निर्णय": 2088,
      "admitted": 2089,
      "financial": 2090,
      "कमी": 2091,
      "personal": 2092,
      "खेल": 2093,
      "अगर": 2094,
      "##TI": 2095,
      "pun": 2096,
      "मौत": 2097,
      "programme": 2098,
      "##ex": 2099,
      "blood": 2100,
      "Him": 2101,
      "etc": 2102,
      "Army": 2103,
      "circ": 2104,
      "districts": 2105,
      "North": 2106,
      "vacc": 2107,
      "Can": 2108,
      "secretary": 2109,
      "candidates": 2110,
      "##AN": 2111,
      "date": 2112,
      "##olk": 2113,
      "award": 2114,
      "##ts": 2115,
      "परिवार": 2116,
      "means": 2117,
      "Israel": 2118,
      "अभी": 2119,
      "close": 2120,
      "lim": 2121,
      "sil": 2122,
      "नागरिक": 2123,
      "इसे": 2124,
      "##iting": 2125,
      "himself": 2126,
      "90": 2127,
      "April": 2128,
      "test": 2129,
      "##ript": 2130,
      "बाह": 2131,
      "होगी": 2132,
      "certain": 2133,
      "study": 2134,
      "details": 2135,
      "conducted": 2136,
      "Aug": 2137,
      "Jan": 2138,
      "society": 2139,
      "34": 2140,
      "##cent": 2141,
      "##ator": 2142,
      "##erm": 2143,
      "interest": 2144,
      "really": 2145,
      "नई": 2146,
      "results": 2147,
      "coll": 2148,
      "##ley": 2149,
      "##aching": 2150,
      "self": 2151,
      "parts": 2152,
      "दिए": 2153,
      "san": 2154,
      "building": 2155,
      "##ization": 2156,
      "everyone": 2157,
      "जल": 2158,
      "##gn": 2159,
      "non": 2160,
      "tour": 2161,
      "words": 2162,
      "##ems": 2163,
      "politics": 2164,
      "##ताओं": 2165,
      "victim": 2166,
      "music": 2167,
      "NC": 2168,
      "created": 2169,
      "##ald": 2170,
      "काफी": 2171,
      "99": 2172,
      "scheme": 2173,
      "didnt": 2174,
      "viral": 2175,
      "##now": 2176,
      "मध्य": 2177,
      "miss": 2178,
      "cover": 2179,
      "once": 2180,
      "अलग": 2181,
      "data": 2182,
      "June": 2183,
      "attended": 2184,
      "design": 2185,
      "Don": 2186,
      "boy": 2187,
      "##lu": 2188,
      "##ne": 2189,
      "community": 2190,
      "married": 2191,
      "##aid": 2192,
      "rushed": 2193,
      "campaign": 2194,
      "जबकि": 2195,
      "efforts": 2196,
      "officer": 2197,
      "##oved": 2198,
      "48": 2199,
      "मीडिया": 2200,
      "half": 2201,
      "##ene": 2202,
      "hands": 2203,
      "represent": 2204,
      "commun": 2205,
      "##head": 2206,
      "capital": 2207,
      "bd": 2208,
      "identified": 2209,
      "industry": 2210,
      "often": 2211,
      "popular": 2212,
      "cou": 2213,
      "##rad": 2214,
      "आस": 2215,
      "least": 2216,
      "position": 2217,
      "fell": 2218,
      "tweet": 2219,
      "recovered": 2220,
      "direct": 2221,
      "according": 2222,
      "Board": 2223,
      "huge": 2224,
      "उच्च": 2225,
      "shoot": 2226,
      "department": 2227,
      "language": 2228,
      "##va": 2229,
      "dies": 2230,
      "55": 2231,
      "having": 2232,
      "hous": 2233,
      "works": 2234,
      "##ilt": 2235,
      "हमें": 2236,
      "schools": 2237,
      "Even": 2238,
      "typ": 2239,
      "Aff": 2240,
      "हालांकि": 2241,
      "driver": 2242,
      "little": 2243,
      "##reg": 2244,
      "##ni": 2245,
      "Twitter": 2246,
      "allowed": 2247,
      "necess": 2248,
      "foot": 2249,
      "officers": 2250,
      "imm": 2251,
      "##ify": 2252,
      "##book": 2253,
      "##elling": 2254,
      "Sept": 2255,
      "single": 2256,
      "using": 2257,
      "ensure": 2258,
      "##alm": 2259,
      "England": 2260,
      "##oid": 2261,
      "Des": 2262,
      "threat": 2263,
      "relationship": 2264,
      "though": 2265,
      "BS": 2266,
      "suicide": 2267,
      "wrote": 2268,
      "चर्चा": 2269,
      "##uz": 2270,
      "began": 2271,
      "##itor": 2272,
      "सूचना": 2273,
      "Education": 2274,
      "low": 2275,
      "व्यक्ति": 2276,
      "rev": 2277,
      "har": 2278,
      "charge": 2279,
      "जिसमें": 2280,
      "Will": 2281,
      "Other": 2282,
      "trying": 2283,
      "Read": 2284,
      "living": 2285,
      "##ier": 2286,
      "पूर्ण": 2287,
      "ago": 2288,
      "):": 2289,
      "expressed": 2290,
      "##cem": 2291,
      "course": 2292,
      "अलावा": 2293,
      "July": 2294,
      "##bh": 2295,
      "heavy": 2296,
      "basis": 2297,
      "growth": 2298,
      "assist": 2299,
      "##nel": 2300,
      "passed": 2301,
      "related": 2302,
      "reports": 2303,
      "raised": 2304,
      "अस्पताल": 2305,
      "Also": 2306,
      "क्योंकि": 2307,
      "game": 2308,
      "##ko": 2309,
      "clean": 2310,
      "##by": 2311,
      "candidate": 2312,
      "##ability": 2313,
      "##ugg": 2314,
      "foreign": 2315,
      "sister": 2316,
      "मूल": 2317,
      "##DI": 2318,
      "ground": 2319,
      "पिछले": 2320,
      "##वाह": 2321,
      "disease": 2322,
      "जाते": 2323,
      "seven": 2324,
      "##atory": 2325,
      "##AR": 2326,
      "##ga": 2327,
      "उम्मीद": 2328,
      "affected": 2329,
      "आर्थिक": 2330,
      "key": 2331,
      "December": 2332,
      "net": 2333,
      "fest": 2334,
      "questions": 2335,
      "cast": 2336,
      "##ender": 2337,
      "पूरी": 2338,
      "##come": 2339,
      "families": 2340,
      "Bar": 2341,
      "छात्र": 2342,
      "##athe": 2343,
      "central": 2344,
      "September": 2345,
      "तब": 2346,
      "produced": 2347,
      "stri": 2348,
      "##inda": 2349,
      "August": 2350,
      "समाज": 2351,
      "forward": 2352,
      "early": 2353,
      "pot": 2354,
      "Spe": 2355,
      "विरोध": 2356,
      "tw": 2357,
      "##ract": 2358,
      "Whats": 2359,
      "ball": 2360,
      "required": 2361,
      "65": 2362,
      "##bed": 2363,
      "sex": 2364,
      "स्वास्थ्य": 2365,
      "##cle": 2366,
      "ज्यादा": 2367,
      "खास": 2368,
      "km": 2369,
      "leave": 2370,
      "दूसरे": 2371,
      "season": 2372,
      "उसकी": 2373,
      "mean": 2374,
      "आगे": 2375,
      "obs": 2376,
      "##ging": 2377,
      "sure": 2378,
      "II": 2379,
      "October": 2380,
      "January": 2381,
      "बदल": 2382,
      "coop": 2383,
      "Let": 2384,
      "मेरे": 2385,
      "resign": 2386,
      "global": 2387,
      "pub": 2388,
      "November": 2389,
      "ready": 2390,
      "fav": 2391,
      "सामने": 2392,
      "object": 2393,
      "mom": 2394,
      "online": 2395,
      "Monday": 2396,
      "walk": 2397,
      "Finance": 2398,
      "##ights": 2399,
      "stop": 2400,
      "400": 2401,
      "stars": 2402,
      "2013": 2403,
      "पहुंच": 2404,
      "activities": 2405,
      "Later": 2406,
      "nat": 2407,
      "host": 2408,
      "search": 2409,
      "Today": 2410,
      "hot": 2411,
      "Three": 2412,
      "playing": 2413,
      "vehicles": 2414,
      "citizens": 2415,
      "##rast": 2416,
      "drink": 2417,
      "town": 2418,
      "Cont": 2419,
      "successful": 2420,
      "दूर": 2421,
      "मिले": 2422,
      "##omb": 2423,
      "##agh": 2424,
      "construction": 2425,
      "anyone": 2426,
      "Paul": 2427,
      "policy": 2428,
      "बाल": 2429,
      "Most": 2430,
      "Of": 2431,
      "doctors": 2432,
      "Re": 2433,
      "completed": 2434,
      "Rel": 2435,
      "whether": 2436,
      "deep": 2437,
      "percent": 2438,
      "share": 2439,
      "companies": 2440,
      "रात": 2441,
      "engine": 2442,
      "aud": 2443,
      "production": 2444,
      "eyes": 2445,
      "claimed": 2446,
      "Face": 2447,
      "150": 2448,
      "##oni": 2449,
      "named": 2450,
      "42": 2451,
      "train": 2452,
      "विध": 2453,
      "आठ": 2454,
      "born": 2455,
      "experience": 2456,
      "forces": 2457,
      "लाभ": 2458,
      "Feb": 2459,
      "विदेश": 2460,
      "answer": 2461,
      "norm": 2462,
      "##work": 2463,
      "Rec": 2464,
      "foc": 2465,
      "increasing": 2466,
      "employees": 2467,
      "House": 2468,
      "##ieved": 2469,
      "कोर्ट": 2470,
      "involved": 2471,
      "letter": 2472,
      "bur": 2473,
      "Road": 2474,
      "check": 2475,
      "मदद": 2476,
      "warn": 2477,
      "response": 2478,
      "Sun": 2479,
      "आने": 2480,
      "everything": 2481,
      "progress": 2482,
      "बनाने": 2483,
      "authorities": 2484,
      "dig": 2485,
      "ill": 2486,
      "पाठ": 2487,
      "dece": 2488,
      "demanded": 2489,
      "विभिन्न": 2490,
      "##ूँ": 2491,
      "##एन": 2492,
      "deg": 2493,
      "करेंगे": 2494,
      "Inst": 2495,
      "purp": 2496,
      "UP": 2497,
      "block": 2498,
      "Here": 2499,
      "यदि": 2500,
      "##ler": 2501,
      "drug": 2502,
      "39": 2503,
      "Friday": 2504,
      "witness": 2505,
      "##acy": 2506,
      "whole": 2507,
      "king": 2508,
      "exist": 2509,
      "outside": 2510,
      "भूमिका": 2511,
      "Are": 2512,
      "##ators": 2513,
      "English": 2514,
      "hope": 2515,
      "##ison": 2516,
      "Christian": 2517,
      "64": 2518,
      "##omp": 2519,
      "Deep": 2520,
      "paid": 2521,
      "link": 2522,
      "Earlier": 2523,
      "##rove": 2524,
      "coun": 2525,
      "##ring": 2526,
      "above": 2527,
      "marriage": 2528,
      "responsibility": 2529,
      "necessary": 2530,
      "speed": 2531,
      "wait": 2532,
      "दुनिया": 2533,
      "John": 2534,
      "card": 2535,
      "Ap": 2536,
      "watch": 2537,
      "By": 2538,
      "mater": 2539,
      "ones": 2540,
      "benefit": 2541,
      "##coming": 2542,
      "cy": 2543,
      "रिपोर्ट": 2544,
      "जाती": 2545,
      "##--": 2546,
      "changed": 2547,
      "opposition": 2548,
      "कल": 2549,
      "lockdown": 2550,
      "सकती": 2551,
      "आदेश": 2552,
      "जहां": 2553,
      "##ंदा": 2554,
      "##uh": 2555,
      "mobile": 2556,
      "Where": 2557,
      "Under": 2558,
      "इसका": 2559,
      "##mb": 2560,
      "##ela": 2561,
      "stated": 2562,
      "##raft": 2563,
      "##fort": 2564,
      "##illed": 2565,
      "mass": 2566,
      "##ids": 2567,
      "विषय": 2568,
      "##ocu": 2569,
      "इसलिए": 2570,
      "Facebook": 2571,
      "points": 2572,
      "themselves": 2573,
      "49": 2574,
      "agree": 2575,
      ".)": 2576,
      "bar": 2577,
      "worth": 2578,
      "petition": 2579,
      "उपयोग": 2580,
      "black": 2581,
      "higher": 2582,
      "similar": 2583,
      "##ray": 2584,
      "reject": 2585,
      "तैयार": 2586,
      "fast": 2587,
      "CP": 2588,
      "सुन": 2589,
      "saw": 2590,
      "##ole": 2591,
      "technology": 2592,
      "East": 2593,
      "followed": 2594,
      "pain": 2595,
      "फोन": 2596,
      "2011": 2597,
      "tit": 2598,
      "##fall": 2599,
      "shift": 2600,
      "00": 2601,
      "violence": 2602,
      "प्रमाण": 2603,
      "कभी": 2604,
      "electric": 2605,
      "knowledge": 2606,
      "पूरा": 2607,
      "194": 2608,
      "hol": 2609,
      "prevent": 2610,
      "##ades": 2611,
      "##ift": 2612,
      "training": 2613,
      "##फ़": 2614,
      "##kal": 2615,
      "Jay": 2616,
      "##oz": 2617,
      "सीट": 2618,
      "समस्या": 2619,
      "सहयोग": 2620,
      "joined": 2621,
      "review": 2622,
      "स्थिति": 2623,
      "tab": 2624,
      "observ": 2625,
      "##pped": 2626,
      "##ci": 2627,
      "जीत": 2628,
      "पानी": 2629,
      "TV": 2630,
      "लेख": 2631,
      "प्रदर्शन": 2632,
      "##uce": 2633,
      "anim": 2634,
      "Super": 2635,
      "worked": 2636,
      "प्रदान": 2637,
      "Mad": 2638,
      "vehicle": 2639,
      "Those": 2640,
      "हमने": 2641,
      "religious": 2642,
      "travel": 2643,
      "##cl": 2644,
      "daily": 2645,
      "sle": 2646,
      "kept": 2647,
      "evening": 2648,
      "teams": 2649,
      "wanted": 2650,
      "houses": 2651,
      "easy": 2652,
      "enjoy": 2653,
      "population": 2654,
      "Since": 2655,
      "##atic": 2656,
      "From": 2657,
      "Cov": 2658,
      "line": 2659,
      "orig": 2660,
      "2012": 2661,
      "opportunity": 2662,
      "whom": 2663,
      "thank": 2664,
      "Therefore": 2665,
      "Pad": 2666,
      "Yes": 2667,
      "mention": 2668,
      "highest": 2669,
      "Thursday": 2670,
      "current": 2671,
      "##ms": 2672,
      "Sunday": 2673,
      "movement": 2674,
      "प्रत्येक": 2675,
      "आपको": 2676,
      "Wednesday": 2677,
      "Col": 2678,
      "wind": 2679,
      "१०": 2680,
      "##rid": 2681,
      "quality": 2682,
      "##hood": 2683,
      "..": 2684,
      "speak": 2685,
      "स्पष्ट": 2686,
      "seat": 2687,
      "Dis": 2688,
      "smart": 2689,
      "needed": 2690,
      "sugg": 2691,
      "##bo": 2692,
      "##__": 2693,
      "environment": 2694,
      "##aging": 2695,
      "cut": 2696,
      "Your": 2697,
      "ve": 2698,
      "Tuesday": 2699,
      "उसने": 2700,
      "individual": 2701,
      "बच": 2702,
      "looking": 2703,
      "grant": 2704,
      "FI": 2705,
      "प्रक्रिया": 2706,
      "path": 2707,
      "Child": 2708,
      "late": 2709,
      "##inated": 2710,
      "steps": 2711,
      "projects": 2712,
      "previous": 2713,
      "Fil": 2714,
      "virus": 2715,
      "particular": 2716,
      "reach": 2717,
      "Europe": 2718,
      "##most": 2719,
      "super": 2720,
      "student": 2721,
      "Chinese": 2722,
      "rights": 2723,
      "respond": 2724,
      "staff": 2725,
      "force": 2726,
      "IS": 2727,
      "deceased": 2728,
      "अमेरिका": 2729,
      "risk": 2730,
      "Public": 2731,
      "shot": 2732,
      "51": 2733,
      "##ja": 2734,
      "नए": 2735,
      "eat": 2736,
      "Japan": 2737,
      "border": 2738,
      "##play": 2739,
      "Saturday": 2740,
      "active": 2741,
      "February": 2742,
      "energy": 2743,
      "message": 2744,
      "teachers": 2745,
      "##IC": 2746,
      "players": 2747,
      "plann": 2748,
      "thr": 2749,
      "giving": 2750,
      "research": 2751,
      "closed": 2752,
      "material": 2753,
      "गंभीर": 2754,
      "flood": 2755,
      "reasons": 2756,
      "##AP": 2757,
      "मामला": 2758,
      "धन": 2759,
      "recent": 2760,
      "located": 2761,
      "addition": 2762,
      "river": 2763,
      "उद्योग": 2764,
      "nor": 2765,
      "पहली": 2766,
      "leading": 2767,
      "supply": 2768,
      "परीक्षा": 2769,
      "अवसर": 2770,
      "subject": 2771,
      "included": 2772,
      "माध्यम": 2773,
      "tried": 2774,
      "civil": 2775,
      "appeal": 2776,
      "conference": 2777,
      "मिला": 2778,
      "Several": 2779,
      "gather": 2780,
      "प्रयोग": 2781,
      "regular": 2782,
      "heard": 2783,
      "else": 2784,
      "Africa": 2785,
      "Team": 2786,
      "impact": 2787,
      "Pro": 2788,
      "rise": 2789,
      "sched": 2790,
      "Women": 2791,
      "attempt": 2792,
      "pressure": 2793,
      "plant": 2794,
      "committed": 2795,
      "couple": 2796,
      "Cr": 2797,
      "केवल": 2798,
      "belong": 2799,
      "except": 2800,
      "##ulated": 2801,
      "##ige": 2802,
      "##uit": 2803,
      "sens": 2804,
      "##lex": 2805,
      "eight": 2806,
      "until": 2807,
      "तौर": 2808,
      "pm": 2809,
      "injuries": 2810,
      "पता": 2811,
      "##dd": 2812,
      "considered": 2813,
      "lit": 2814,
      "##iers": 2815,
      "##ton": 2816,
      "caused": 2817,
      "ahead": 2818,
      "destroy": 2819,
      "participated": 2820,
      "?\"": 2821,
      "improve": 2822,
      "Follow": 2823,
      "Off": 2824,
      "##SS": 2825,
      "UN": 2826,
      "##eful": 2827,
      "'.": 2828,
      "journal": 2829,
      "offer": 2830,
      "repl": 2831,
      "कला": 2832,
      "Vice": 2833,
      "46": 2834,
      "रंग": 2835,
      "Their": 2836,
      "सुधार": 2837,
      "picture": 2838,
      "Witness": 2839,
      "खो": 2840,
      "hearing": 2841,
      "remember": 2842,
      "First": 2843,
      "cur": 2844,
      "create": 2845,
      "Red": 2846,
      "52": 2847,
      "especially": 2848,
      "income": 2849,
      "##ological": 2850,
      "व्यवस्था": 2851,
      "##ham": 2852,
      "attend": 2853,
      "trade": 2854,
      "target": 2855,
      "करीब": 2856,
      "mand": 2857,
      "Institute": 2858,
      "room": 2859,
      "hum": 2860,
      "complete": 2861,
      "बड़ी": 2862,
      "सिद्ध": 2863,
      "god": 2864,
      "ways": 2865,
      "जाना": 2866,
      "arrest": 2867,
      "David": 2868,
      "इसकी": 2869,
      "Cons": 2870,
      "दक्षिण": 2871,
      "American": 2872,
      "rules": 2873,
      "makes": 2874,
      "##ental": 2875,
      "##ners": 2876,
      "express": 2877,
      "पड़": 2878,
      "joint": 2879,
      "मां": 2880,
      "anti": 2881,
      "takes": 2882,
      "round": 2883,
      "पत्नी": 2884,
      "German": 2885,
      "##te": 2886,
      "deaths": 2887,
      "banks": 2888,
      "स्तर": 2889,
      "protect": 2890,
      "military": 2891,
      "##itude": 2892,
      "##hav": 2893,
      "operation": 2894,
      "jail": 2895,
      "trust": 2896,
      "Bill": 2897,
      "moment": 2898,
      "regarding": 2899,
      "स्कूल": 2900,
      "section": 2901,
      "cross": 2902,
      "Up": 2903,
      "beat": 2904,
      "sn": 2905,
      "consider": 2906,
      "संबंधित": 2907,
      "विमान": 2908,
      "##lus": 2909,
      "brothers": 2910,
      "board": 2911,
      "harm": 2912,
      "mort": 2913,
      "होंगे": 2914,
      "measures": 2915,
      "पोस्ट": 2916,
      "करती": 2917,
      "हाथ": 2918,
      "revealed": 2919,
      "Tra": 2920,
      "बल": 2921,
      "ध्यान": 2922,
      "##ening": 2923,
      "religion": 2924,
      "inside": 2925,
      "परिणाम": 2926,
      "##aved": 2927,
      "मौजूद": 2928,
      "shock": 2929,
      "bodies": 2930,
      "opened": 2931,
      "ten": 2932,
      "roles": 2933,
      "roads": 2934,
      "##rant": 2935,
      "बाहर": 2936,
      "space": 2937,
      "wel": 2938,
      "traffic": 2939,
      "doctor": 2940,
      "products": 2941,
      "built": 2942,
      "Per": 2943,
      "##ora": 2944,
      "News": 2945,
      "facilities": 2946,
      "cities": 2947,
      "alone": 2948,
      "पढ़": 2949,
      "रहने": 2950,
      "हत्या": 2951,
      "54": 2952,
      "turned": 2953,
      "Work": 2954,
      "developed": 2955,
      "spoke": 2956,
      "Ran": 2957,
      "##कान": 2958,
      "City": 2959,
      "college": 2960,
      "Over": 2961,
      "management": 2962,
      "achieve": 2963,
      "wants": 2964,
      "either": 2965,
      "earn": 2966,
      "failed": 2967,
      "bless": 2968,
      "League": 2969,
      "deliver": 2970,
      "Everyone": 2971,
      "contact": 2972,
      "yes": 2973,
      "##ugh": 2974,
      "##eli": 2975,
      "proper": 2976,
      "const": 2977,
      "spiritual": 2978,
      "SP": 2979,
      "##where": 2980,
      "pra": 2981,
      "Officer": 2982,
      "attention": 2983,
      "पिता": 2984,
      "Ge": 2985,
      "##ta": 2986,
      "सीमा": 2987,
      "देते": 2988,
      "aim": 2989,
      ")।": 2990,
      "British": 2991,
      "##action": 2992,
      "leadership": 2993,
      "carried": 2994,
      "handed": 2995,
      "laws": 2996,
      "cant": 2997,
      "stopped": 2998,
      "changes": 2999,
      "##ably": 3000,
      "formed": 3001,
      "returned": 3002,
      "fine": 3003,
      "beautiful": 3004,
      "asp": 3005,
      "focus": 3006,
      "लाल": 3007,
      "villages": 3008,
      "enough": 3009,
      "try": 3010,
      "access": 3011,
      "rank": 3012,
      "elected": 3013,
      "colour": 3014,
      "Christians": 3015,
      "लड़": 3016,
      "cred": 3017,
      "##rated": 3018,
      "##eer": 3019,
      "##ER": 3020,
      "##AT": 3021,
      "prepared": 3022,
      "##ida": 3023,
      "भाषा": 3024,
      "बढ़ा": 3025,
      "girls": 3026,
      "continued": 3027,
      "56": 3028,
      "sleep": 3029,
      "natural": 3030,
      "पूछ": 3031,
      "##पन": 3032,
      "flow": 3033,
      "upcoming": 3034,
      "expect": 3035,
      "##urance": 3036,
      "moved": 3037,
      "medic": 3038,
      "gets": 3039,
      "ban": 3040,
      "लागू": 3041,
      "Following": 3042,
      "मंदिर": 3043,
      "value": 3044,
      "##ously": 3045,
      "जगह": 3046,
      "break": 3047,
      "confirmed": 3048,
      "##बू": 3049,
      "published": 3050,
      "आयोजित": 3051,
      "maintain": 3052,
      "abs": 3053,
      "buy": 3054,
      "##agram": 3055,
      "लगे": 3056,
      "##roll": 3057,
      "देशों": 3058,
      "Ben": 3059,
      "cash": 3060,
      "connect": 3061,
      "includes": 3062,
      "visited": 3063,
      "charges": 3064,
      "competition": 3065,
      "concerned": 3066,
      "नियम": 3067,
      "ऐसी": 3068,
      "groups": 3069,
      "##ique": 3070,
      "centre": 3071,
      "##ivity": 3072,
      "application": 3073,
      "Bad": 3074,
      "modern": 3075,
      "85": 3076,
      "er": 3077,
      "culture": 3078,
      "उठा": 3079,
      "##OR": 3080,
      "War": 3081,
      "##SE": 3082,
      "वजह": 3083,
      "judge": 3084,
      "मैंने": 3085,
      "bail": 3086,
      "plat": 3087,
      "quite": 3088,
      "Met": 3089,
      "तय": 3090,
      "##acity": 3091,
      "performance": 3092,
      "arrange": 3093,
      "Law": 3094,
      "दिनों": 3095,
      "Gl": 3096,
      "purpose": 3097,
      "##ोधन": 3098,
      "session": 3099,
      "facing": 3100,
      "जिसके": 3101,
      "nar": 3102,
      "सैन": 3103,
      "प्रेम": 3104,
      "bag": 3105,
      "दिल": 3106,
      "##inar": 3107,
      "suffering": 3108,
      "Only": 3109,
      "53": 3110,
      "##ball": 3111,
      "shooting": 3112,
      "चला": 3113,
      "minor": 3114,
      "evidence": 3115,
      "##ीत": 3116,
      "प्रस्ताव": 3117,
      "legal": 3118,
      "freedom": 3119,
      "सफल": 3120,
      "Another": 3121,
      "screen": 3122,
      "contest": 3123,
      "KK": 3124,
      "transport": 3125,
      "strength": 3126,
      "कानून": 3127,
      "विजय": 3128,
      "जन्म": 3129,
      "प्रवेश": 3130,
      "stage": 3131,
      "##asi": 3132,
      "recorded": 3133,
      "Mark": 3134,
      "veg": 3135,
      "डो": 3136,
      "allegations": 3137,
      "amb": 3138,
      "इतिहास": 3139,
      "##co": 3140,
      "मर": 3141,
      "##AD": 3142,
      "sought": 3143,
      "bab": 3144,
      "exec": 3145,
      "विश्वास": 3146,
      "आया": 3147,
      "2010": 3148,
      "victory": 3149,
      "Senior": 3150,
      "Mot": 3151,
      "गति": 3152,
      "custody": 3153,
      "temper": 3154,
      "##ache": 3155,
      "petrol": 3156,
      "vote": 3157,
      "rich": 3158,
      "कार्यालय": 3159,
      "##ze": 3160,
      "crisis": 3161,
      "Hence": 3162,
      "उसका": 3163,
      "सामाजिक": 3164,
      "##hips": 3165,
      "मना": 3166,
      "model": 3167,
      "लगभग": 3168,
      "emb": 3169,
      "हॉ": 3170,
      "discussed": 3171,
      "rural": 3172,
      "apply": 3173,
      "##use": 3174,
      "truck": 3175,
      "park": 3176,
      "मेरी": 3177,
      "character": 3178,
      "हमारी": 3179,
      "युवा": 3180,
      "स्थानीय": 3181,
      "website": 3182,
      "page": 3183,
      "completely": 3184,
      "Besides": 3185,
      "hundred": 3186,
      "goes": 3187,
      "लेने": 3188,
      "##igg": 3189,
      "नया": 3190,
      "सामान्य": 3191,
      "someone": 3192,
      "##de": 3193,
      "##yle": 3194,
      "honour": 3195,
      "lack": 3196,
      "कैसे": 3197,
      "display": 3198,
      "sons": 3199,
      "phase": 3200,
      "talks": 3201,
      "pen": 3202,
      "prime": 3203,
      "shifted": 3204,
      "सिर्फ": 3205,
      "presence": 3206,
      "relief": 3207,
      "वीडियो": 3208,
      "below": 3209,
      "site": 3210,
      "Best": 3211,
      "conditions": 3212,
      "pictures": 3213,
      "pack": 3214,
      "gri": 3215,
      "felt": 3216,
      "justice": 3217,
      "names": 3218,
      "fourth": 3219,
      "बड़ा": 3220,
      "AM": 3221,
      "approved": 3222,
      "',": 3223,
      "platform": 3224,
      "खुद": 3225,
      "##eral": 3226,
      "benefits": 3227,
      "notice": 3228,
      "Out": 3229,
      "simple": 3230,
      "knows": 3231,
      "बच्चों": 3232,
      "continu": 3233,
      "क्रम": 3234,
      "देखा": 3235,
      "hear": 3236,
      "establish": 3237,
      "Sidd": 3238,
      "##oi": 3239,
      "sad": 3240,
      "Ven": 3241,
      "almost": 3242,
      "matches": 3243,
      "ren": 3244,
      "aver": 3245,
      "होना": 3246,
      "##SP": 3247,
      "शो": 3248,
      "##RC": 3249,
      "Security": 3250,
      "hospitals": 3251,
      "career": 3252,
      "बनाए": 3253,
      "save": 3254,
      "gun": 3255,
      "##rif": 3256,
      "budget": 3257,
      "Zealand": 3258,
      "shows": 3259,
      "##MP": 3260,
      "परियोजना": 3261,
      "ye": 3262,
      "safety": 3263,
      "##though": 3264,
      "fail": 3265,
      "mer": 3266,
      "##SC": 3267,
      "require": 3268,
      "आतंक": 3269,
      "यात्रा": 3270,
      "denied": 3271,
      "##सत": 3272,
      "##een": 3273,
      "##pal": 3274,
      "गयी": 3275,
      "manner": 3276,
      "expert": 3277,
      "join": 3278,
      "crime": 3279,
      "fal": 3280,
      "door": 3281,
      "itself": 3282,
      "north": 3283,
      "lat": 3284,
      "दें": 3285,
      "avoid": 3286,
      "फैसला": 3287,
      "terms": 3288,
      "danger": 3289,
      "rejected": 3290,
      "Gr": 3291,
      "72": 3292,
      "Film": 3293,
      "offered": 3294,
      "contain": 3295,
      "600": 3296,
      "capacity": 3297,
      "##oop": 3298,
      "motor": 3299,
      "पुरुष": 3300,
      "Asia": 3301,
      "green": 3302,
      "pick": 3303,
      "presented": 3304,
      "62": 3305,
      "##for": 3306,
      "##iced": 3307,
      "##chi": 3308,
      "##ugal": 3309,
      "books": 3310,
      "##ps": 3311,
      "बड़े": 3312,
      "tick": 3313,
      "doesnt": 3314,
      "कहना": 3315,
      "running": 3316,
      "essential": 3317,
      "providing": 3318,
      "lower": 3319,
      "Four": 3320,
      "महत्वपूर्ण": 3321,
      "strateg": 3322,
      "prior": 3323,
      "Similar": 3324,
      "grand": 3325,
      "direction": 3326,
      "##craft": 3327,
      "comment": 3328,
      "ताकि": 3329,
      "normal": 3330,
      "symp": 3331,
      "Force": 3332,
      "Leg": 3333,
      "commission": 3334,
      "forest": 3335,
      "66": 3336,
      "##rog": 3337,
      "feet": 3338,
      "रखा": 3339,
      "sun": 3340,
      "responsible": 3341,
      "milk": 3342,
      "deploy": 3343,
      "tested": 3344,
      "box": 3345,
      "Afghanistan": 3346,
      "south": 3347,
      "fre": 3348,
      "250": 3349,
      "govern": 3350,
      "##ady": 3351,
      "##estern": 3352,
      "favour": 3353,
      "labour": 3354,
      "Instagram": 3355,
      "remark": 3356,
      "healthy": 3357,
      "IN": 3358,
      "Apart": 3359,
      "mentioned": 3360,
      "gives": 3361,
      "lov": 3362,
      "storage": 3363,
      "शोध": 3364,
      "2000": 3365,
      "discussion": 3366,
      "अंक": 3367,
      "Research": 3368,
      "Due": 3369,
      "seeking": 3370,
      "सामना": 3371,
      "posted": 3372,
      "additional": 3373,
      "airport": 3374,
      "safe": 3375,
      "जिससे": 3376,
      "partners": 3377,
      "##फे": 3378,
      "ordered": 3379,
      "##aches": 3380,
      "strugg": 3381,
      "hair": 3382,
      "strike": 3383,
      "खर्च": 3384,
      "arrived": 3385,
      "status": 3386,
      "IT": 3387,
      "Because": 3388,
      "मामलों": 3389,
      "demon": 3390,
      "sports": 3391,
      "एक्स": 3392,
      "billion": 3393,
      "##oli": 3394,
      "cho": 3395,
      "majority": 3396,
      "served": 3397,
      "residents": 3398,
      "quick": 3399,
      "thousand": 3400,
      "पूरे": 3401,
      "95": 3402,
      "Qu": 3403,
      "जरूरत": 3404,
      "speaking": 3405,
      "soldiers": 3406,
      "क्षेत्रों": 3407,
      "whose": 3408,
      "समर्थन": 3409,
      "determ": 3410,
      "कदम": 3411,
      "assistance": 3412,
      "remained": 3413,
      "suffered": 3414,
      "तेज": 3415,
      "यही": 3416,
      "photo": 3417,
      "जिसे": 3418,
      "plays": 3419,
      "didn": 3420,
      "मार्च": 3421,
      "cell": 3422,
      "rape": 3423,
      "established": 3424,
      "gas": 3425,
      "track": 3426,
      "skin": 3427,
      "profession": 3428,
      "speech": 3429,
      "हूँ": 3430,
      "SC": 3431,
      "Mor": 3432,
      "जवाब": 3433,
      "लगाया": 3434,
      "file": 3435,
      "देता": 3436,
      "white": 3437,
      "emerg": 3438,
      "इस्तेमाल": 3439,
      "Donald": 3440,
      "biggest": 3441,
      "खबर": 3442,
      "bill": 3443,
      "हवा": 3444,
      "Office": 3445,
      "##uls": 3446,
      "Speaking": 3447,
      "network": 3448,
      "##iki": 3449,
      "##son": 3450,
      "remains": 3451,
      "corruption": 3452,
      "draw": 3453,
      "लिखा": 3454,
      "helps": 3455,
      "growing": 3456,
      "army": 3457,
      "अंतिम": 3458,
      "San": 3459,
      "करेगा": 3460,
      "prec": 3461,
      "source": 3462,
      "critical": 3463,
      "sugar": 3464,
      "refused": 3465,
      "रस": 3466,
      "nature": 3467,
      "bi": 3468,
      "fig": 3469,
      "continues": 3470,
      "wedding": 3471,
      "serve": 3472,
      "Vik": 3473,
      "Soc": 3474,
      "##inth": 3475,
      "##light": 3476,
      "sitting": 3477,
      "aware": 3478,
      "##IT": 3479,
      "lay": 3480,
      "duty": 3481,
      "##back": 3482,
      "mid": 3483,
      "allegedly": 3484,
      "accepted": 3485,
      "रक्षा": 3486,
      "sound": 3487,
      "##be": 3488,
      "af": 3489,
      "voice": 3490,
      "ज्ञान": 3491,
      "सम्मान": 3492,
      "operations": 3493,
      "interview": 3494,
      "max": 3495,
      "छोड़": 3496,
      "सवाल": 3497,
      "extrem": 3498,
      "उम्मीदवार": 3499,
      "London": 3500,
      "receive": 3501,
      "text": 3502,
      "##ality": 3503,
      "events": 3504,
      "चाहते": 3505,
      "article": 3506,
      "employment": 3507,
      "अच्छा": 3508,
      "congrat": 3509,
      "Net": 3510,
      "रखने": 3511,
      "weight": 3512,
      "begin": 3513,
      "हिस्सा": 3514,
      "helped": 3515,
      "opportunities": 3516,
      "UK": 3517,
      "submitted": 3518,
      "Olymp": 3519,
      "shown": 3520,
      "confidence": 3521,
      "##aps": 3522,
      "funds": 3523,
      "74": 3524,
      "journey": 3525,
      "protests": 3526,
      "unit": 3527,
      "Good": 3528,
      "Sand": 3529,
      "बिना": 3530,
      "die": 3531,
      "idea": 3532,
      "वर्ग": 3533,
      "users": 3534,
      "ठीक": 3535,
      "fish": 3536,
      "व्यापार": 3537,
      "Bus": 3538,
      "broke": 3539,
      "reduce": 3540,
      "winning": 3541,
      "beginning": 3542,
      "numbers": 3543,
      "महीने": 3544,
      "secret": 3545,
      "Mess": 3546,
      "thir": 3547,
      "mist": 3548,
      "##ider": 3549,
      "sin": 3550,
      "extended": 3551,
      ".,": 3552,
      "##NG": 3553,
      "mor": 3554,
      "plans": 3555,
      "61": 3556,
      "vs": 3557,
      "bound": 3558,
      "Social": 3559,
      "therefore": 3560,
      "भाई": 3561,
      "##una": 3562,
      "female": 3563,
      "sides": 3564,
      "##AI": 3565,
      "send": 3566,
      "hero": 3567,
      "damaged": 3568,
      "punish": 3569,
      "note": 3570,
      "68": 3571,
      "बजे": 3572,
      "attacks": 3573,
      "##oti": 3574,
      "physical": 3575,
      "sup": 3576,
      "challenge": 3577,
      "जल्द": 3578,
      "Power": 3579,
      "looked": 3580,
      "importance": 3581,
      "log": 3582,
      "missing": 3583,
      "Further": 3584,
      "dream": 3585,
      "firm": 3586,
      "attacked": 3587,
      "कोशिश": 3588,
      "शुक्र": 3589,
      "talking": 3590,
      "suspended": 3591,
      "hop": 3592,
      "despite": 3593,
      "disapp": 3594,
      "भविष्य": 3595,
      "’,": 3596,
      "soul": 3597,
      "false": 3598,
      "stock": 3599,
      "77": 3600,
      "slow": 3601,
      "कार्ड": 3602,
      "नुकसान": 3603,
      "victims": 3604,
      "cancer": 3605,
      "Imp": 3606,
      "rob": 3607,
      "बल्कि": 3608,
      "instead": 3609,
      "seriously": 3610,
      "दूसरी": 3611,
      "pred": 3612,
      "स्वीकार": 3613,
      "##istic": 3614,
      "मानव": 3615,
      "vice": 3616,
      "##yr": 3617,
      "Second": 3618,
      "touch": 3619,
      "soft": 3620,
      "रोग": 3621,
      "pal": 3622,
      "डॉक्टर": 3623,
      "Goa": 3624,
      "languages": 3625,
      "accounts": 3626,
      "caught": 3627,
      "See": 3628,
      "weeks": 3629,
      "jobs": 3630,
      "fat": 3631,
      "##gy": 3632,
      "opening": 3633,
      "happening": 3634,
      "toll": 3635,
      "minutes": 3636,
      "समान": 3637,
      "MS": 3638,
      "signed": 3639,
      "average": 3640,
      "thinking": 3641,
      "effective": 3642,
      "##ols": 3643,
      "bear": 3644,
      "seem": 3645,
      "सही": 3646,
      "property": 3647,
      "primary": 3648,
      "joy": 3649,
      "Tri": 3650,
      "नेतृत्व": 3651,
      "लगातार": 3652,
      "domestic": 3653,
      "believed": 3654,
      "##ED": 3655,
      "yourself": 3656,
      "लिख": 3657,
      "Family": 3658,
      "Fire": 3659,
      "CA": 3660,
      "कवि": 3661,
      "Among": 3662,
      "scheduled": 3663,
      "reply": 3664,
      "America": 3665,
      "degree": 3666,
      "killing": 3667,
      "800": 3668,
      "cop": 3669,
      "actually": 3670,
      "cold": 3671,
      "method": 3672,
      "##eous": 3673,
      "meetings": 3674,
      "und": 3675,
      "आपके": 3676,
      "flag": 3677,
      "भारी": 3678,
      "##ume": 3679,
      "हार": 3680,
      "Post": 3681,
      "##oe": 3682,
      "product": 3683,
      "अनुभव": 3684,
      "##raz": 3685,
      "bat": 3686,
      "NE": 3687,
      "Take": 3688,
      "loan": 3689,
      "removed": 3690,
      "spent": 3691,
      "##endent": 3692,
      "anniversary": 3693,
      "bit": 3694,
      "##lect": 3695,
      "kid": 3696,
      "science": 3697,
      "alert": 3698,
      "lib": 3699,
      "trains": 3700,
      "Nobody": 3701,
      "##hin": 3702,
      "latest": 3703,
      "plea": 3704,
      "placed": 3705,
      "noted": 3706,
      "ep": 3707,
      "Have": 3708,
      "fled": 3709,
      "hor": 3710,
      "factor": 3711,
      "डाल": 3712,
      "range": 3713,
      "infection": 3714,
      "weak": 3715,
      "2007": 3716,
      "##to": 3717,
      "##vent": 3718,
      "entered": 3719,
      "waiting": 3720,
      "Ang": 3721,
      "Google": 3722,
      "Us": 3723,
      "reb": 3724,
      "treated": 3725,
      "##inations": 3726,
      "##aper": 3727,
      "tree": 3728,
      "##ese": 3729,
      "fair": 3730,
      "##iction": 3731,
      "battle": 3732,
      "About": 3733,
      "audience": 3734,
      "nearby": 3735,
      "Food": 3736,
      "120": 3737,
      "Father": 3738,
      "Service": 3739,
      "उल्लेख": 3740,
      "mig": 3741,
      "फल": 3742,
      "agency": 3743,
      "Rem": 3744,
      "sense": 3745,
      "Yet": 3746,
      "separate": 3747,
      "York": 3748,
      "mask": 3749,
      "repe": 3750,
      "##odu": 3751,
      "middle": 3752,
      "burn": 3753,
      "careful": 3754,
      "fully": 3755,
      "becomes": 3756,
      "##HI": 3757,
      "escap": 3758,
      "##hil": 3759,
      "##pa": 3760,
      "पाया": 3761,
      "songs": 3762,
      "solution": 3763,
      "maximum": 3764,
      "Additional": 3765,
      "exercise": 3766,
      "levels": 3767,
      "भेज": 3768,
      "strict": 3769,
      "yesterday": 3770,
      "posts": 3771,
      "##ES": 3772,
      "महान": 3773,
      "player": 3774,
      "१५": 3775,
      "Rom": 3776,
      "##oa": 3777,
      "दिशा": 3778,
      "agreed": 3779,
      "dismiss": 3780,
      "happens": 3781,
      "मित्र": 3782,
      "temperature": 3783,
      "heaven": 3784,
      "##aste": 3785,
      "Did": 3786,
      "happiness": 3787,
      "विज्ञान": 3788,
      "आधारित": 3789,
      "##ba": 3790,
      "incidents": 3791,
      "verdict": 3792,
      "receiving": 3793,
      "image": 3794,
      "testing": 3795,
      "##ola": 3796,
      "wish": 3797,
      "severe": 3798,
      "warm": 3799,
      "Sir": 3800,
      "##othing": 3801,
      "somet": 3802,
      "specific": 3803,
      "goal": 3804,
      "nearly": 3805,
      "carrying": 3806,
      "dark": 3807,
      "निजी": 3808,
      "कहते": 3809,
      "throughout": 3810,
      "evil": 3811,
      "Services": 3812,
      "introduced": 3813,
      "coach": 3814,
      "तुम्हारे": 3815,
      "effort": 3816,
      "##za": 3817,
      "carry": 3818,
      "potential": 3819,
      "hour": 3820,
      "Head": 3821,
      "Thank": 3822,
      "##nu": 3823,
      "decisions": 3824,
      "cook": 3825,
      "गेंद": 3826,
      "title": 3827,
      "वृद्धि": 3828,
      "diseases": 3829,
      "seems": 3830,
      "मृत्यु": 3831,
      "ended": 3832,
      "type": 3833,
      "कर्मचारी": 3834,
      "satisf": 3835,
      "##urg": 3836,
      "91": 3837,
      "hav": 3838,
      "thousands": 3839,
      "##ks": 3840,
      "##yer": 3841,
      "damage": 3842,
      "मेरा": 3843,
      "significant": 3844,
      "Article": 3845,
      "mic": 3846,
      "प्रिय": 3847,
      "orders": 3848,
      "Tax": 3849,
      "protection": 3850,
      "holy": 3851,
      "proceed": 3852,
      "delay": 3853,
      "provides": 3854,
      "granted": 3855,
      "generation": 3856,
      "directly": 3857,
      "undergoing": 3858,
      "bed": 3859,
      "गैर": 3860,
      "##rama": 3861,
      "prison": 3862,
      "Last": 3863,
      "निकाल": 3864,
      "sale": 3865,
      "##oting": 3866,
      "selected": 3867,
      "Asian": 3868,
      "imposed": 3869,
      "counter": 3870,
      "Mir": 3871,
      "documents": 3872,
      "calls": 3873,
      "centres": 3874,
      "initial": 3875,
      "credit": 3876,
      "Children": 3877,
      "trial": 3878,
      "request": 3879,
      "homes": 3880,
      "knew": 3881,
      "##ancy": 3882,
      "##inate": 3883,
      "trees": 3884,
      "rates": 3885,
      "चुका": 3886,
      "sell": 3887,
      "loved": 3888,
      "##ipl": 3889,
      ":-": 3890,
      "stra": 3891,
      "option": 3892,
      "नंबर": 3893,
      "write": 3894,
      "practice": 3895,
      "सहायता": 3896,
      "sexual": 3897,
      "##ression": 3898,
      "mill": 3899,
      "illegal": 3900,
      "drinking": 3901,
      "fresh": 3902,
      "देना": 3903,
      "arrangements": 3904,
      "faced": 3905,
      "associated": 3906,
      "thou": 3907,
      "patient": 3908,
      "वर्तमान": 3909,
      "extremely": 3910,
      "आवश्यकता": 3911,
      "approach": 3912,
      "permission": 3913,
      "famous": 3914,
      "प्रभावित": 3915,
      "matters": 3916,
      "02": 3917,
      "stone": 3918,
      "destroyed": 3919,
      "animals": 3920,
      "baby": 3921,
      "thus": 3922,
      "smartphone": 3923,
      "demands": 3924,
      "residence": 3925,
      "##asy": 3926,
      "##asp": 3927,
      "drive": 3928,
      "electricity": 3929,
      "Watch": 3930,
      "शरीर": 3931,
      "##स्टर": 3932,
      "Ser": 3933,
      "Lim": 3934,
      "NI": 3935,
      "1000": 3936,
      "Inf": 3937,
      "Keep": 3938,
      "compared": 3939,
      "लगता": 3940,
      "digital": 3941,
      "via": 3942,
      "Fund": 3943,
      "stations": 3944,
      "##एँ": 3945,
      "##yl": 3946,
      "Tom": 3947,
      "coast": 3948,
      "difference": 3949,
      "ऊर्जा": 3950,
      "##iles": 3951,
      "Matt": 3952,
      "स्वतंत्र": 3953,
      "unique": 3954,
      "अच्छी": 3955,
      "मजबूत": 3956,
      "cult": 3957,
      "demanding": 3958,
      "06": 3959,
      "French": 3960,
      "distance": 3961,
      "facility": 3962,
      "produce": 3963,
      "immediate": 3964,
      "mut": 3965,
      "nine": 3966,
      "mission": 3967,
      "एंड": 3968,
      "bul": 3969,
      "consult": 3970,
      "standing": 3971,
      "प्राथमिक": 3972,
      "agreement": 3973,
      "keeping": 3974,
      "##lands": 3975,
      "mad": 3976,
      "उदाहरण": 3977,
      "daughters": 3978,
      "appeared": 3979,
      "मूल्य": 3980,
      "मिलने": 3981,
      "Val": 3982,
      "forth": 3983,
      "isnt": 3984,
      "abroad": 3985,
      "longer": 3986,
      "household": 3987,
      "task": 3988,
      "options": 3989,
      "##chol": 3990,
      "ancient": 3991,
      "meaning": 3992,
      "birthday": 3993,
      "dispute": 3994,
      "reform": 3995,
      "ongoing": 3996,
      "##ground": 3997,
      "units": 3998,
      "righteous": 3999,
      "crowd": 4000,
      "ऑस्ट्रेलिया": 4001,
      "reduced": 4002,
      "bowl": 4003,
      "Assist": 4004,
      "Sports": 4005,
      "reality": 4006,
      "##esters": 4007,
      "occurred": 4008,
      "planning": 4009,
      "neither": 4010,
      "games": 4011,
      "Ha": 4012,
      "salt": 4013,
      "Fed": 4014,
      "criminal": 4015,
      "doubt": 4016,
      "उसी": 4017,
      "invited": 4018,
      "jan": 4019,
      "रेड": 4020,
      "paper": 4021,
      "उनसे": 4022,
      "goods": 4023,
      "university": 4024,
      "lose": 4025,
      "fighting": 4026,
      "rescue": 4027,
      "##ulate": 4028,
      "comfort": 4029,
      "becoming": 4030,
      "बिल": 4031,
      "##ियाँ": 4032,
      "writing": 4033,
      "पैदा": 4034,
      "remaining": 4035,
      "awarded": 4036,
      "Open": 4037,
      "यहाँ": 4038,
      "sudden": 4039,
      "Life": 4040,
      "2006": 4041,
      "offers": 4042,
      "headed": 4043,
      "तस्वीर": 4044,
      "begun": 4045,
      "commercial": 4046,
      "challenges": 4047,
      "stre": 4048,
      "forget": 4049,
      "##iling": 4050,
      "suggest": 4051,
      "proud": 4052,
      "nut": 4053,
      "ll": 4054,
      "decide": 4055,
      "Min": 4056,
      "colleges": 4057,
      "gram": 4058,
      "बच्चे": 4059,
      "gain": 4060,
      "Port": 4061,
      "700": 4062,
      "ign": 4063,
      "रचना": 4064,
      "thats": 4065,
      "ton": 4066,
      "studies": 4067,
      "125": 4068,
      "सुबह": 4069,
      "survey": 4070,
      "स्वयं": 4071,
      "punishment": 4072,
      "Vin": 4073,
      "listen": 4074,
      "Five": 4075,
      "Phil": 4076,
      "##thi": 4077,
      "flight": 4078,
      "welfare": 4079,
      "पीछे": 4080,
      "initiative": 4081,
      "##AL": 4082,
      "gang": 4083,
      "##izing": 4084,
      "Em": 4085,
      "भर्ती": 4086,
      "learning": 4087,
      "हमेशा": 4088,
      "shops": 4089,
      "weather": 4090,
      "सभा": 4091,
      "customers": 4092,
      "terrorist": 4093,
      "पैसे": 4094,
      "अवधि": 4095,
      "Germany": 4096,
      "CEO": 4097,
      "blast": 4098,
      "exact": 4099,
      "drugs": 4100,
      "डॉलर": 4101,
      "Has": 4102,
      "broad": 4103,
      "shop": 4104,
      "##erate": 4105,
      "sisters": 4106,
      "नियंत्रण": 4107,
      "marks": 4108,
      "rising": 4109,
      "acting": 4110,
      "अगले": 4111,
      "extra": 4112,
      "greater": 4113,
      "undert": 4114,
      "awareness": 4115,
      "negative": 4116,
      "मगर": 4117,
      "सुरक्षित": 4118,
      "Lab": 4119,
      "basic": 4120,
      "supported": 4121,
      "उससे": 4122,
      "##ox": 4123,
      "massive": 4124,
      "राशि": 4125,
      "##atta": 4126,
      "symptoms": 4127,
      "##akers": 4128,
      "भावना": 4129,
      "पहला": 4130,
      "##ME": 4131,
      "##uff": 4132,
      "certainly": 4133,
      "organized": 4134,
      "tim": 4135,
      "referred": 4136,
      "wonder": 4137,
      "base": 4138,
      "##apped": 4139,
      "vision": 4140,
      "Though": 4141,
      "payment": 4142,
      "autom": 4143,
      "comments": 4144,
      "sometimes": 4145,
      "Hard": 4146,
      ",'": 4147,
      "moving": 4148,
      "boost": 4149,
      "types": 4150,
      "##alt": 4151,
      "संपर्क": 4152,
      "collect": 4153,
      "Sk": 4154,
      "##ressing": 4155,
      "items": 4156,
      "Mag": 4157,
      "band": 4158,
      "reading": 4159,
      "शादी": 4160,
      "कौन": 4161,
      "Heavy": 4162,
      "setting": 4163,
      "atm": 4164,
      "tests": 4165,
      "##eve": 4166,
      "बातचीत": 4167,
      "पति": 4168,
      "showed": 4169,
      "laid": 4170,
      "Mas": 4171,
      "equal": 4172,
      "assault": 4173,
      "ST": 4174,
      "##ography": 4175,
      "rice": 4176,
      "जेल": 4177,
      "Once": 4178,
      "existing": 4179,
      "सूची": 4180,
      "resources": 4181,
      "Peter": 4182,
      "internet": 4183,
      "Pay": 4184,
      "convers": 4185,
      "vent": 4186,
      "complex": 4187,
      "Er": 4188,
      "Russian": 4189,
      "हमले": 4190,
      "limit": 4191,
      "स्वतः": 4192,
      "##eta": 4193,
      "mental": 4194,
      "wide": 4195,
      "##itch": 4196,
      "entry": 4197,
      "shut": 4198,
      "dog": 4199,
      "TR": 4200,
      "##arily": 4201,
      "participate": 4202,
      "##cert": 4203,
      "##FC": 4204,
      "Well": 4205,
      "nov": 4206,
      "वापस": 4207,
      "score": 4208,
      "overs": 4209,
      "claims": 4210,
      "content": 4211,
      "powerful": 4212,
      "stood": 4213,
      "2005": 4214,
      "surf": 4215,
      "teach": 4216,
      "defeat": 4217,
      "assured": 4218,
      "Although": 4219,
      "##room": 4220,
      "loans": 4221,
      "eye": 4222,
      "tomorrow": 4223,
      "purs": 4224,
      "सोच": 4225,
      "urban": 4226,
      "शीर्ष": 4227,
      "estimated": 4228,
      "Tour": 4229,
      "##ved": 4230,
      "सुनिश्चित": 4231,
      "relatives": 4232,
      "managed": 4233,
      "holding": 4234,
      "accompanied": 4235,
      "style": 4236,
      "leaves": 4237,
      "photos": 4238,
      "Real": 4239,
      "rather": 4240,
      "finally": 4241,
      "chem": 4242,
      "तुलना": 4243,
      "hurt": 4244,
      "योगदान": 4245,
      "initiated": 4246,
      "chair": 4247,
      "विकसित": 4248,
      "Project": 4249,
      "Look": 4250,
      "##वाले": 4251,
      "sang": 4252,
      "सत्र": 4253,
      "internal": 4254,
      "affect": 4255,
      "forced": 4256,
      "कहीं": 4257,
      "faithful": 4258,
      "double": 4259,
      "##yo": 4260,
      "size": 4261,
      "harass": 4262,
      "advised": 4263,
      "prep": 4264,
      "dial": 4265,
      "तेजी": 4266,
      "Korea": 4267,
      "monitor": 4268,
      "देखते": 4269,
      "prayer": 4270,
      "CR": 4271,
      "fruit": 4272,
      "quarter": 4273,
      "limited": 4274,
      "wasnt": 4275,
      "easily": 4276,
      "Gen": 4277,
      "Devi": 4278,
      "Before": 4279,
      "संभावना": 4280,
      "shr": 4281,
      "##TC": 4282,
      "Dec": 4283,
      "सुपर": 4284,
      "none": 4285,
      "aw": 4286,
      "खरीद": 4287,
      "spend": 4288,
      "हल": 4289,
      "चाहता": 4290,
      "chance": 4291,
      "humans": 4292,
      "desire": 4293,
      "batter": 4294,
      "stress": 4295,
      "खाली": 4296,
      ".'": 4297,
      "##____": 4298,
      "Human": 4299,
      "demonst": 4300,
      "बारिश": 4301,
      "movies": 4302,
      "hom": 4303,
      "Babu": 4304,
      "squad": 4305,
      "sharing": 4306,
      "परिवर्तन": 4307,
      "लागत": 4308,
      "scene": 4309,
      "Inc": 4310,
      "requested": 4311,
      "heat": 4312,
      "origin": 4313,
      "surely": 4314,
      "Business": 4315,
      "table": 4316,
      "lived": 4317,
      "recommend": 4318,
      "##ster": 4319,
      "कॉलेज": 4320,
      "questioned": 4321,
      "हमला": 4322,
      "Year": 4323,
      "##....": 4324,
      "stands": 4325,
      "looks": 4326,
      "rapid": 4327,
      "minimum": 4328,
      "….": 4329,
      "सड़क": 4330,
      "fake": 4331,
      "opinion": 4332,
      "सलाह": 4333,
      "##lo": 4334,
      "hearts": 4335,
      "struggle": 4336,
      "kids": 4337,
      "signs": 4338,
      "Som": 4339,
      "cup": 4340,
      "विस्तार": 4341,
      "देखने": 4342,
      "usually": 4343,
      "described": 4344,
      "Enter": 4345,
      "traditional": 4346,
      "नवा": 4347,
      "whatever": 4348,
      "Each": 4349,
      "##yal": 4350,
      "afraid": 4351,
      "stories": 4352,
      "pull": 4353,
      "Despite": 4354,
      "cancelled": 4355,
      "busy": 4356,
      "injury": 4357,
      "pri": 4358,
      "authority": 4359,
      "mart": 4360,
      "CB": 4361,
      "##pping": 4362,
      "independent": 4363,
      "contribution": 4364,
      "debate": 4365,
      "remove": 4366,
      "लगी": 4367,
      "individuals": 4368,
      "आधी": 4369,
      "choice": 4370,
      "fra": 4371,
      "dry": 4372,
      "offering": 4373,
      "देखें": 4374,
      "begins": 4375,
      "Hel": 4376,
      "videos": 4377,
      "Su": 4378,
      "asking": 4379,
      "computer": 4380,
      "addressed": 4381,
      "साफ": 4382,
      "##mark": 4383,
      "अनुमति": 4384,
      "दुख": 4385,
      "##...": 4386,
      "##AC": 4387,
      "Aut": 4388,
      "succeed": 4389,
      "views": 4390,
      "writer": 4391,
      "encounter": 4392,
      "##izes": 4393,
      "##equ": 4394,
      "Make": 4395,
      "correct": 4396,
      "acted": 4397,
      "multiple": 4398,
      "##hir": 4399,
      "paint": 4400,
      "print": 4401,
      "besides": 4402,
      "educational": 4403,
      "causes": 4404,
      "संक्रमण": 4405,
      "appropriate": 4406,
      "interesting": 4407,
      "roll": 4408,
      "AN": 4409,
      "foundation": 4410,
      "Tim": 4411,
      "leaving": 4412,
      "infl": 4413,
      "understanding": 4414,
      "warned": 4415,
      "Att": 4416,
      "tea": 4417,
      "systems": 4418,
      "##chit": 4419,
      "representatives": 4420,
      "rock": 4421,
      "dance": 4422,
      "Time": 4423,
      "##kn": 4424,
      "खुला": 4425,
      "resolution": 4426,
      "dedicated": 4427,
      "beyond": 4428,
      "संदेश": 4429,
      "##iff": 4430,
      "छोटे": 4431,
      "निकल": 4432,
      "original": 4433,
      "Recently": 4434,
      "learnt": 4435,
      "अध्ययन": 4436,
      "ce": 4437,
      "activity": 4438,
      "perfect": 4439,
      "AT": 4440,
      "##SI": 4441,
      "tar": 4442,
      "निश्चित": 4443,
      "lies": 4444,
      "football": 4445,
      "planned": 4446,
      "शांति": 4447,
      "##gen": 4448,
      "emergency": 4449,
      "wild": 4450,
      "literature": 4451,
      "serving": 4452,
      "##hari": 4453,
      "##actions": 4454,
      "waste": 4455,
      "##cious": 4456,
      "creation": 4457,
      "hat": 4458,
      "##ero": 4459,
      "जनवरी": 4460,
      "van": 4461,
      "device": 4462,
      "##erous": 4463,
      "बेटी": 4464,
      "technical": 4465,
      "प्रतिक्रिया": 4466,
      "wise": 4467,
      "guest": 4468,
      "रहते": 4469,
      "choose": 4470,
      "phones": 4471,
      "particularly": 4472,
      "notification": 4473,
      "mir": 4474,
      "brand": 4475,
      "institution": 4476,
      "##key": 4477,
      "promised": 4478,
      "Mother": 4479,
      "अवस्था": 4480,
      "Any": 4481,
      "hotel": 4482,
      "स्थापित": 4483,
      "IM": 4484,
      "ran": 4485,
      "fee": 4486,
      "Washington": 4487,
      "ste": 4488,
      "wearing": 4489,
      "document": 4490,
      "पालन": 4491,
      "suffer": 4492,
      "##oma": 4493,
      "ऊपर": 4494,
      "fixed": 4495,
      "guard": 4496,
      "agencies": 4497,
      "Rob": 4498,
      "wear": 4499,
      "Like": 4500,
      "##ww": 4501,
      "fruits": 4502,
      "लगाने": 4503,
      "fellow": 4504,
      "पल": 4505,
      "forms": 4506,
      "owner": 4507,
      "आंदोलन": 4508,
      "partner": 4509,
      "bridge": 4510,
      "Captain": 4511,
      "defeated": 4512,
      "der": 4513,
      "east": 4514,
      "exchange": 4515,
      "भूमि": 4516,
      "fuel": 4517,
      "circumstances": 4518,
      "Please": 4519,
      "script": 4520,
      "advice": 4521,
      "floor": 4522,
      "creating": 4523,
      "दुकान": 4524,
      "repeated": 4525,
      "scale": 4526,
      "rescued": 4527,
      "cars": 4528,
      "prayers": 4529,
      "meant": 4530,
      "Pri": 4531,
      "dangerous": 4532,
      "filled": 4533,
      "fifth": 4534,
      "version": 4535,
      "##yn": 4536,
      "organization": 4537,
      "wealth": 4538,
      "confident": 4539,
      "Nothing": 4540,
      "mouth": 4541,
      "Love": 4542,
      "insurance": 4543,
      "compensation": 4544,
      "doll": 4545,
      "##ria": 4546,
      "awards": 4547,
      "##xic": 4548,
      "teaching": 4549,
      "आगामी": 4550,
      "tank": 4551,
      "संकट": 4552,
      "dismissed": 4553,
      "spoken": 4554,
      "radi": 4555,
      "##avu": 4556,
      "broken": 4557,
      "Assistant": 4558,
      "##कर्ता": 4559,
      "बेटे": 4560,
      "banned": 4561,
      "River": 4562,
      "welcome": 4563,
      "##hone": 4564,
      "##essions": 4565,
      "myself": 4566,
      "feeling": 4567,
      "clothes": 4568,
      "agricultural": 4569,
      "shares": 4570,
      "covered": 4571,
      "Does": 4572,
      "raise": 4573,
      "quickly": 4574,
      "discussions": 4575,
      "association": 4576,
      "worried": 4577,
      "प्रबंधन": 4578,
      "opposed": 4579,
      "influence": 4580,
      "बाकी": 4581,
      "feed": 4582,
      "Society": 4583,
      "promise": 4584,
      "Yoga": 4585,
      "mo": 4586,
      "Friend": 4587,
      "##wad": 4588,
      "lic": 4589,
      "wake": 4590,
      "चिंता": 4591,
      "taught": 4592,
      "holds": 4593,
      "atmosphere": 4594,
      "cabinet": 4595,
      "route": 4596,
      "सुना": 4597,
      "assess": 4598,
      "priority": 4599,
      "buses": 4600,
      "##ective": 4601,
      "booked": 4602,
      "##MS": 4603,
      "\"(": 4604,
      "परीक्षण": 4605,
      "ruled": 4606,
      "Found": 4607,
      "भगवान": 4608,
      "ash": 4609,
      "species": 4610,
      "regional": 4611,
      "##eted": 4612,
      "ऑनलाइन": 4613,
      "Canada": 4614,
      "behalf": 4615,
      "diss": 4616,
      "सर्वे": 4617,
      "Kings": 4618,
      "तरीके": 4619,
      "##ech": 4620,
      "transfer": 4621,
      "twice": 4622,
      "complaints": 4623,
      "कलाकार": 4624,
      "Coop": 4625,
      "courage": 4626,
      "inch": 4627,
      "engaged": 4628,
      "wall": 4629,
      "agg": 4630,
      "collection": 4631,
      "इलाज": 4632,
      "guilty": 4633,
      "afternoon": 4634,
      "व्यवहार": 4635,
      "counsel": 4636,
      "डर": 4637,
      "collected": 4638,
      "pollution": 4639,
      "Aw": 4640,
      "राजनीति": 4641,
      "उनमें": 4642,
      "##50": 4643,
      "bike": 4644,
      "identity": 4645,
      "Star": 4646,
      "peaceful": 4647,
      "हिंसा": 4648,
      "RAM": 4649,
      "१६": 4650,
      "##pay": 4651,
      "addressing": 4652,
      "190": 4653,
      "##ino": 4654,
      "possibility": 4655,
      "bond": 4656,
      "unf": 4657,
      "##ext": 4658,
      "##icit": 4659,
      "pending": 4660,
      "resolve": 4661,
      "खोज": 4662,
      "आशा": 4663,
      "Lo": 4664,
      "fields": 4665,
      "!\"": 4666,
      "assign": 4667,
      "नीचे": 4668,
      "rear": 4669,
      "wishes": 4670,
      "पूर्वी": 4671,
      "बदलाव": 4672,
      "remarks": 4673,
      "ED": 4674,
      "balls": 4675,
      "वित्तीय": 4676,
      "lines": 4677,
      "notes": 4678,
      "130": 4679,
      "sustained": 4680,
      "James": 4681,
      "##andra": 4682,
      "interests": 4683,
      "Joseph": 4684,
      "##rd": 4685,
      "अच्छे": 4686,
      "brief": 4687,
      "Happ": 4688,
      "##van": 4689,
      "delivered": 4690,
      "store": 4691,
      "neighbour": 4692,
      "सारे": 4693,
      "charged": 4694,
      "proved": 4695,
      "Black": 4696,
      "oath": 4697,
      "developing": 4698,
      "degrees": 4699,
      "divided": 4700,
      "सोमवार": 4701,
      "##apa": 4702,
      "classes": 4703,
      "arm": 4704,
      "Tir": 4705,
      "guidance": 4706,
      "loving": 4707,
      "माता": 4708,
      "##ki": 4709,
      "interact": 4710,
      "##30": 4711,
      "standard": 4712,
      "##da": 4713,
      "##eri": 4714,
      "Fort": 4715,
      "ticket": 4716,
      "dur": 4717,
      "##NA": 4718,
      "रद्द": 4719,
      "contract": 4720,
      "wont": 4721,
      "altern": 4722,
      "values": 4723,
      "Know": 4724,
      "worry": 4725,
      "symbol": 4726,
      "Android": 4727,
      "##HE": 4728,
      "eating": 4729,
      "changing": 4730,
      "cards": 4731,
      "animal": 4732,
      "partnership": 4733,
      "##eni": 4734,
      "##ye": 4735,
      "स्वागत": 4736,
      "registration": 4737,
      "costs": 4738,
      "leads": 4739,
      "मौसम": 4740,
      "prove": 4741,
      "highly": 4742,
      "2002": 4743,
      "refer": 4744,
      "apart": 4745,
      "wave": 4746,
      "angry": 4747,
      "recovery": 4748,
      "Mary": 4749,
      "doesn": 4750,
      "##RI": 4751,
      "seeing": 4752,
      "Summ": 4753,
      "heavens": 4754,
      "गलत": 4755,
      "emotion": 4756,
      "clearly": 4757,
      "willing": 4758,
      "Everything": 4759,
      "calling": 4760,
      "equipment": 4761,
      "Indeed": 4762,
      "surprised": 4763,
      "resigned": 4764,
      "खुश": 4765,
      "driving": 4766,
      "actions": 4767,
      "lying": 4768,
      "पसंद": 4769,
      "boys": 4770,
      "अनुमान": 4771,
      "please": 4772,
      "Men": 4773,
      "communication": 4774,
      "sales": 4775,
      "समाप्त": 4776,
      "Around": 4777,
      "##ming": 4778,
      "Id": 4779,
      "चयन": 4780,
      "anger": 4781,
      "Ret": 4782,
      "वातावरण": 4783,
      "भेजा": 4784,
      "saved": 4785,
      "composed": 4786,
      "marg": 4787,
      "Mos": 4788,
      "ability": 4789,
      "संगीत": 4790,
      "##olving": 4791,
      "##19": 4792,
      "interested": 4793,
      "\",": 4794,
      "sport": 4795,
      "##ubb": 4796,
      "Step": 4797,
      "rid": 4798,
      "rum": 4799,
      "2003": 4800,
      "350": 4801,
      "raped": 4802,
      "मुक्त": 4803,
      "bomb": 4804,
      "%.": 4805,
      "attract": 4806,
      "beauty": 4807,
      "policies": 4808,
      "तुम्हें": 4809,
      "prominent": 4810,
      "decades": 4811,
      "weapons": 4812,
      "hung": 4813,
      "ha": 4814,
      "finance": 4815,
      "da": 4816,
      "goals": 4817,
      "warning": 4818,
      "transferred": 4819,
      "प्यार": 4820,
      "install": 4821,
      "पड़ा": 4822,
      "Internet": 4823,
      "structure": 4824,
      "executive": 4825,
      "beli": 4826,
      "highway": 4827,
      "advantage": 4828,
      "user": 4829,
      "web": 4830,
      "prepare": 4831,
      "strongly": 4832,
      "##त्मक": 4833,
      "##uting": 4834,
      "scientists": 4835,
      "branch": 4836,
      "welcomed": 4837,
      "उद्देश्य": 4838,
      "DC": 4839,
      "male": 4840,
      "Great": 4841,
      "memory": 4842,
      "west": 4843,
      "##alo": 4844,
      "sky": 4845,
      "unable": 4846,
      "##di": 4847,
      "flights": 4848,
      "ourselves": 4849,
      "gathering": 4850,
      "club": 4851,
      "toward": 4852,
      "Friends": 4853,
      "जैसा": 4854,
      "starting": 4855,
      "मिलेगा": 4856,
      "##itu": 4857,
      "कर्मचारियों": 4858,
      "underst": 4859,
      "gur": 4860,
      "किलोमीटर": 4861,
      "मुद्दा": 4862,
      "measure": 4863,
      "length": 4864,
      "travelling": 4865,
      "wisdom": 4866,
      "belief": 4867,
      "threatened": 4868,
      "affairs": 4869,
      "##den": 4870,
      "Ins": 4871,
      "fraud": 4872,
      "aid": 4873,
      "unknown": 4874,
      "diet": 4875,
      "celebrate": 4876,
      "highlight": 4877,
      "advance": 4878,
      "cool": 4879,
      "examples": 4880,
      "900": 4881,
      "दस": 4882,
      "singer": 4883,
      "शिक्षक": 4884,
      "applications": 4885,
      "lie": 4886,
      "channel": 4887,
      "##du": 4888,
      "Ris": 4889,
      "couldnt": 4890,
      "bringing": 4891,
      "alive": 4892,
      "Get": 4893,
      "cow": 4894,
      "failure": 4895,
      "summer": 4896,
      "showing": 4897,
      "मुलाकात": 4898,
      "concept": 4899,
      "##ano": 4900,
      "hundreds": 4901,
      "submit": 4902,
      "Trust": 4903,
      "lawyer": 4904,
      "regularly": 4905,
      "Apple": 4906,
      "jump": 4907,
      "sum": 4908,
      "ba": 4909,
      "contains": 4910,
      "mix": 4911,
      "संकेत": 4912,
      "opposite": 4913,
      "professional": 4914,
      "Stand": 4915,
      "explained": 4916,
      "load": 4917,
      "du": 4918,
      "context": 4919,
      "चले": 4920,
      "quant": 4921,
      "##cing": 4922,
      "##roc": 4923,
      "आकार": 4924,
      "mud": 4925,
      "bath": 4926,
      "younger": 4927,
      "survived": 4928,
      "खोल": 4929,
      "profit": 4930,
      "Which": 4931,
      "resist": 4932,
      "passing": 4933,
      "moon": 4934,
      "##ked": 4935,
      "##alg": 4936,
      "रखते": 4937,
      "##OS": 4938,
      "निवासी": 4939,
      "ram": 4940,
      "180": 4941,
      "Currently": 4942,
      "Main": 4943,
      "adding": 4944,
      "Exc": 4945,
      "जानते": 4946,
      "Foundation": 4947,
      "sacrifice": 4948,
      "courts": 4949,
      "records": 4950,
      "##asc": 4951,
      "restrictions": 4952,
      "attitude": 4953,
      "trouble": 4954,
      "followers": 4955,
      "scam": 4956,
      "uncle": 4957,
      "owners": 4958,
      "responded": 4959,
      "samples": 4960,
      "##mas": 4961,
      "tough": 4962,
      "gathered": 4963,
      "battery": 4964,
      "प्रतिबंध": 4965,
      "flu": 4966,
      "##break": 4967,
      "बावजूद": 4968,
      "Show": 4969,
      "medium": 4970,
      "effects": 4971,
      "kit": 4972,
      "Times": 4973,
      "approached": 4974,
      "street": 4975,
      "gift": 4976,
      "##ares": 4977,
      "novel": 4978,
      "arms": 4979,
      "Western": 4980,
      "संभव": 4981,
      "vel": 4982,
      "bah": 4983,
      "alcohol": 4984,
      "falls": 4985,
      "visiting": 4986,
      "connected": 4987,
      "##DR": 4988,
      "starts": 4989,
      "selling": 4990,
      "**": 4991,
      "##रत": 4992,
      "hyp": 4993,
      "blog": 4994,
      "appreciated": 4995,
      "Never": 4996,
      "....": 4997,
      "promises": 4998,
      "identify": 4999,
      "suspected": 5000,
      "सप्ताह": 5001,
      "simply": 5002,
      "##mal": 5003,
      "लाने": 5004,
      "sustain": 5005,
      "accidents": 5006,
      "##using": 5007,
      "shocked": 5008,
      "sick": 5009,
      "clash": 5010,
      "blue": 5011,
      "jaw": 5012,
      "Qual": 5013,
      "standards": 5014,
      "\".": 5015,
      "ideas": 5016,
      "सेट": 5017,
      "##aling": 5018,
      "worker": 5019,
      "PS": 5020,
      "tend": 5021,
      "storm": 5022,
      "glob": 5023,
      "Moreover": 5024,
      "Navy": 5025,
      "priced": 5026,
      "##olis": 5027,
      "designed": 5028,
      "110": 5029,
      "Major": 5030,
      "fed": 5031,
      "increases": 5032,
      "गरीब": 5033,
      "independence": 5034,
      "Iraq": 5035,
      "cry": 5036,
      "straight": 5037,
      "push": 5038,
      "%,": 5039,
      "panic": 5040,
      "panel": 5041,
      "resolved": 5042,
      "ties": 5043,
      "आदमी": 5044,
      "helping": 5045,
      "##ologies": 5046,
      "concerns": 5047,
      "statements": 5048,
      "विकल्प": 5049,
      "streets": 5050,
      "scared": 5051,
      "खराब": 5052,
      "दुर्घटना": 5053,
      "fle": 5054,
      "bid": 5055,
      "permanent": 5056,
      "AB": 5057,
      "वर्षों": 5058,
      "##ressive": 5059,
      "thoughts": 5060,
      "##enant": 5061,
      "conducting": 5062,
      "wheel": 5063,
      "Na": 5064,
      "cat": 5065,
      "master": 5066,
      "location": 5067,
      "1st": 5068,
      "amaz": 5069,
      "Dubai": 5070,
      "explain": 5071,
      "##uing": 5072,
      "faces": 5073,
      "widely": 5074,
      "skills": 5075,
      "crucial": 5076,
      "window": 5077,
      "watching": 5078,
      "follows": 5079,
      "व्यवसाय": 5080,
      "##तून": 5081,
      "##lusion": 5082,
      "घंटे": 5083,
      "असर": 5084,
      "millions": 5085,
      "Note": 5086,
      "valid": 5087,
      "दिखाई": 5088,
      "Cy": 5089,
      "##haz": 5090,
      "learned": 5091,
      "##pat": 5092,
      "recommended": 5093,
      "भुगतान": 5094,
      "pace": 5095,
      "buildings": 5096,
      "scientific": 5097,
      "fan": 5098,
      "##pad": 5099,
      "grad": 5100,
      "proof": 5101,
      "दोस्त": 5102,
      "principles": 5103,
      "Awards": 5104,
      "commitment": 5105,
      "fought": 5106,
      "##more": 5107,
      "देर": 5108,
      "toss": 5109,
      "Sometimes": 5110,
      "casual": 5111,
      "iron": 5112,
      "मौजूदा": 5113,
      "shortage": 5114,
      "newly": 5115,
      "studying": 5116,
      "blessings": 5117,
      "सिर": 5118,
      "successfully": 5119,
      "appointment": 5120,
      "संघर्ष": 5121,
      "mercy": 5122,
      "Willi": 5123,
      "supporting": 5124,
      "फरवरी": 5125,
      "indic": 5126,
      "wa": 5127,
      "egg": 5128,
      "##board": 5129,
      "expand": 5130,
      "ult": 5131,
      "खत्म": 5132,
      "##care": 5133,
      "react": 5134,
      "##osis": 5135,
      "दिसंबर": 5136,
      "council": 5137,
      "overall": 5138,
      "पैसा": 5139,
      "iPhone": 5140,
      "judgment": 5141,
      "losing": 5142,
      "balance": 5143,
      "vast": 5144,
      "objective": 5145,
      "exams": 5146,
      "Reserve": 5147,
      "criticism": 5148,
      "##edi": 5149,
      "inspired": 5150,
      "swe": 5151,
      "pros": 5152,
      "returning": 5153,
      "बुधवार": 5154,
      "chap": 5155,
      "शनिवार": 5156,
      "suggested": 5157,
      "picked": 5158,
      "delivery": 5159,
      "writ": 5160,
      "Job": 5161,
      "worst": 5162,
      "##etic": 5163,
      "surface": 5164,
      "chemical": 5165,
      "JN": 5166,
      "wonderful": 5167,
      "wood": 5168,
      "brain": 5169,
      "medicine": 5170,
      "trailer": 5171,
      "principal": 5172,
      "code": 5173,
      "refuge": 5174,
      "peoples": 5175,
      "discharged": 5176,
      "ward": 5177,
      "Mart": 5178,
      "throw": 5179,
      "involve": 5180,
      "files": 5181,
      "glass": 5182,
      "agitation": 5183,
      "ऋण": 5184,
      "Put": 5185,
      "truly": 5186,
      "native": 5187,
      "##the": 5188,
      "witnessed": 5189,
      "ship": 5190,
      "बचा": 5191,
      "stick": 5192,
      "winners": 5193,
      "इतना": 5194,
      "ol": 5195,
      "##IL": 5196,
      "अंदर": 5197,
      "deter": 5198,
      "assets": 5199,
      "friendly": 5200,
      "मालिक": 5201,
      "Use": 5202,
      "Smith": 5203,
      "debt": 5204,
      "##hot": 5205,
      "रविवार": 5206,
      "mistake": 5207,
      "Amazon": 5208,
      "##gi": 5209,
      "##api": 5210,
      "सम्बन्ध": 5211,
      "conflict": 5212,
      "participation": 5213,
      "passes": 5214,
      "Ive": 5215,
      "nobody": 5216,
      "schedule": 5217,
      "unn": 5218,
      "apolog": 5219,
      "postp": 5220,
      "respective": 5221,
      "Gram": 5222,
      "floods": 5223,
      "Ach": 5224,
      "##ger": 5225,
      "tha": 5226,
      "सामान": 5227,
      "sight": 5228,
      "poverty": 5229,
      "pregnant": 5230,
      "Girl": 5231,
      "सहा": 5232,
      "winter": 5233,
      "afford": 5234,
      "रहता": 5235,
      "purchase": 5236,
      "##ella": 5237,
      "##ूनी": 5238,
      "escape": 5239,
      "टन": 5240,
      "सामग्री": 5241,
      "hers": 5242,
      "grief": 5243,
      "catch": 5244,
      "पीठ": 5245,
      "properly": 5246,
      "Ji": 5247,
      "confirm": 5248,
      "डिग्री": 5249,
      "retire": 5250,
      "Land": 5251,
      "manager": 5252,
      "”.": 5253,
      "चाहे": 5254,
      "absol": 5255,
      "motorcycle": 5256,
      "detailed": 5257,
      "beaten": 5258,
      "breath": 5259,
      "visible": 5260,
      "##laim": 5261,
      "सुंदर": 5262,
      "convey": 5263,
      "unb": 5264,
      "argument": 5265,
      "pension": 5266,
      "extent": 5267,
      "Um": 5268,
      "Music": 5269,
      "विद्यालय": 5270,
      "सहायक": 5271,
      "Come": 5272,
      "वास्तव": 5273,
      "Instead": 5274,
      "aspects": 5275,
      "unl": 5276,
      "dropped": 5277,
      "दोष": 5278,
      "’.": 5279,
      "taste": 5280,
      "withdraw": 5281,
      "possession": 5282,
      "Secondary": 5283,
      "greatest": 5284,
      "studied": 5285,
      "retired": 5286,
      "दवा": 5287,
      "perhaps": 5288,
      "outbreak": 5289,
      "Sl": 5290,
      "पढ़ें": 5291,
      "Harsh": 5292,
      "प्रस्तुत": 5293,
      "Judge": 5294,
      "artist": 5295,
      "##शाली": 5296,
      "plane": 5297,
      "fulfilled": 5298,
      "hall": 5299,
      "resulted": 5300,
      "variety": 5301,
      "Financial": 5302,
      "beneficial": 5303,
      "नियमित": 5304,
      "oxygen": 5305,
      "Lev": 5306,
      "तलाश": 5307,
      "subsequently": 5308,
      "ID": 5309,
      "परिवहन": 5310,
      "functioning": 5311,
      "select": 5312,
      "##ych": 5313,
      "गोली": 5314,
      "चिकित्सा": 5315,
      "experienced": 5316,
      "citizen": 5317,
      "Dam": 5318,
      "शांत": 5319,
      "honest": 5320,
      "spreading": 5321,
      "Gar": 5322,
      "handle": 5323,
      "brings": 5324,
      "cameras": 5325,
      "##onom": 5326,
      "Finally": 5327,
      "territory": 5328,
      "drama": 5329,
      "linked": 5330,
      "Doctors": 5331,
      "improved": 5332,
      "newspaper": 5333,
      "salary": 5334,
      "Japanese": 5335,
      "manifest": 5336,
      "##lin": 5337,
      "answers": 5338,
      "download": 5339,
      "earned": 5340,
      "certificate": 5341,
      "जिन्हें": 5342,
      "software": 5343,
      "sav": 5344,
      "##वालों": 5345,
      "owned": 5346,
      "##erted": 5347,
      "Oil": 5348,
      "Fa": 5349,
      "मानसिक": 5350,
      "walking": 5351,
      "occur": 5352,
      "background": 5353,
      "grown": 5354,
      "auto": 5355,
      "finished": 5356,
      "Price": 5357,
      "Start": 5358,
      "stayed": 5359,
      "Sn": 5360,
      "Dar": 5361,
      "anywhere": 5362,
      "bapt": 5363,
      "operating": 5364,
      "उम्र": 5365,
      "##rier": 5366,
      "आग्रह": 5367,
      "mainly": 5368,
      "PP": 5369,
      "fel": 5370,
      "भीतर": 5371,
      "mas": 5372,
      "##alan": 5373,
      "elements": 5374,
      "causing": 5375,
      "कौशल": 5376,
      "birds": 5377,
      "Hot": 5378,
      "monitoring": 5379,
      "”,": 5380,
      "determined": 5381,
      "चोट": 5382,
      "उचित": 5383,
      "feelings": 5384,
      "childhood": 5385,
      "journalists": 5386,
      "plastic": 5387,
      "##apr": 5388,
      "शायद": 5389,
      "Happy": 5390,
      "burnt": 5391,
      "आत्महत्या": 5392,
      "साझा": 5393,
      "##order": 5394,
      "##पक": 5395,
      "applied": 5396,
      "numerous": 5397,
      "##cel": 5398,
      "challenging": 5399,
      "colours": 5400,
      "acres": 5401,
      "declined": 5402,
      "patt": 5403,
      "vital": 5404,
      "commit": 5405,
      "talked": 5406,
      "NEW": 5407,
      "Thomas": 5408,
      "neck": 5409,
      "Person": 5410,
      "##ica": 5411,
      "falling": 5412,
      "campus": 5413,
      "मात्रा": 5414,
      "दर्शन": 5415,
      "Administration": 5416,
      "wheat": 5417,
      "रिकॉर्ड": 5418,
      "reaching": 5419,
      "praise": 5420,
      "Along": 5421,
      "बचाव": 5422,
      "thanked": 5423,
      "##zz": 5424,
      "Han": 5425,
      "meat": 5426,
      "footage": 5427,
      "requires": 5428,
      "laugh": 5429,
      "African": 5430,
      "प्रार्थना": 5431,
      "herself": 5432,
      "Greek": 5433,
      "खुशी": 5434,
      "Festival": 5435,
      "सहज": 5436,
      "Check": 5437,
      "tonnes": 5438,
      "instructions": 5439,
      "engineering": 5440,
      "appears": 5441,
      "suddenly": 5442,
      "NH": 5443,
      "crossed": 5444,
      "lover": 5445,
      "fit": 5446,
      "SA": 5447,
      "Shi": 5448,
      "heads": 5449,
      "penalty": 5450,
      "घरेलू": 5451,
      "bright": 5452,
      "##mort": 5453,
      "##rum": 5454,
      "USA": 5455,
      "condemned": 5456,
      "cells": 5457,
      "extend": 5458,
      "चोरी": 5459,
      "approx": 5460,
      "directions": 5461,
      "WHO": 5462,
      "quit": 5463,
      "बढ़ावा": 5464,
      "mandatory": 5465,
      "voting": 5466,
      "maintained": 5467,
      "Po": 5468,
      "मुश्किल": 5469,
      "violation": 5470,
      "साबित": 5471,
      "differences": 5472,
      "relax": 5473,
      "अचानक": 5474,
      "flowers": 5475,
      "exception": 5476,
      "##gr": 5477,
      "liv": 5478,
      "प्राण": 5479,
      "##pet": 5480,
      "जिसने": 5481,
      "तारीख": 5482,
      "forever": 5483,
      "chosen": 5484,
      "जहाँ": 5485,
      "USD": 5486,
      "पवित्र": 5487,
      "practices": 5488,
      "गैस": 5489,
      "putting": 5490,
      "##apse": 5491,
      "mode": 5492,
      "investors": 5493,
      "complain": 5494,
      "मुझ": 5495,
      "titled": 5496,
      "sort": 5497,
      "factory": 5498,
      "##IP": 5499,
      "Maha": 5500,
      "Through": 5501,
      "sweet": 5502,
      "unfortun": 5503,
      "इनकार": 5504,
      "papers": 5505,
      "करनी": 5506,
      "conversation": 5507,
      "conspiracy": 5508,
      "##sa": 5509,
      "Gre": 5510,
      "variant": 5511,
      "understood": 5512,
      "##uko": 5513,
      "दोषी": 5514,
      "fever": 5515,
      "ble": 5516,
      "बातें": 5517,
      "color": 5518,
      "आसपास": 5519,
      "fired": 5520,
      "feels": 5521,
      "Others": 5522,
      "encourage": 5523,
      "##right": 5524,
      "prize": 5525,
      "figure": 5526,
      "illness": 5527,
      "##estion": 5528,
      "BC": 5529,
      "factors": 5530,
      "luck": 5531,
      "suspect": 5532,
      "##इज": 5533,
      "Electric": 5534,
      "secure": 5535,
      "toler": 5536,
      "##owing": 5537,
      "##lor": 5538,
      "pride": 5539,
      "academic": 5540,
      "समाचार": 5541,
      "मतलब": 5542,
      "definitely": 5543,
      "reservation": 5544,
      "multi": 5545,
      "Based": 5546,
      "eventually": 5547,
      "Dur": 5548,
      "##box": 5549,
      "##inter": 5550,
      "Hebrew": 5551,
      "stable": 5552,
      "tap": 5553,
      "Oh": 5554,
      "acts": 5555,
      "paying": 5556,
      "पाने": 5557,
      "judges": 5558,
      ".-": 5559,
      "jun": 5560,
      "पुनः": 5561,
      "Total": 5562,
      "machine": 5563,
      "महसूस": 5564,
      "replied": 5565,
      "favor": 5566,
      "stolen": 5567,
      "eligible": 5568,
      "##ho": 5569,
      "##dr": 5570,
      "administrative": 5571,
      "belongs": 5572,
      "pointed": 5573,
      "##eti": 5574,
      "useful": 5575,
      "asks": 5576,
      "उत्पन्न": 5577,
      "adopted": 5578,
      "armed": 5579,
      "सक्षम": 5580,
      "excellent": 5581,
      "##ibly": 5582,
      "Kn": 5583,
      "loyal": 5584,
      "Pen": 5585,
      "ing": 5586,
      "##hit": 5587,
      "emotional": 5588,
      "generally": 5589,
      "##had": 5590,
      "remind": 5591,
      "wash": 5592,
      "juice": 5593,
      "spl": 5594,
      "surprise": 5595,
      "core": 5596,
      "Mys": 5597,
      "closely": 5598,
      "adequate": 5599,
      "Ev": 5600,
      "answered": 5601,
      "materials": 5602,
      "Plan": 5603,
      "Ba": 5604,
      "sentence": 5605,
      "##berg": 5606,
      "tickets": 5607,
      "Back": 5608,
      "हाय": 5609,
      "labor": 5610,
      "cycl": 5611,
      "##rom": 5612,
      "fold": 5613,
      "##ua": 5614,
      "returns": 5615,
      "होम": 5616,
      "repair": 5617,
      "pieces": 5618,
      "mountain": 5619,
      "CS": 5620,
      "silent": 5621,
      "Free": 5622,
      "sor": 5623,
      "मौका": 5624,
      "consecutive": 5625,
      "elderly": 5626,
      "powered": 5627,
      "कॉल": 5628,
      "fill": 5629,
      "140": 5630,
      "trained": 5631,
      "Whether": 5632,
      "questioning": 5633,
      "दबाव": 5634,
      "gate": 5635,
      "island": 5636,
      "hike": 5637,
      "upset": 5638,
      "ok": 5639,
      "##oked": 5640,
      "hill": 5641,
      "दूध": 5642,
      "magazine": 5643,
      "exactly": 5644,
      "AC": 5645,
      "semi": 5646,
      "mostly": 5647,
      "टीवी": 5648,
      "Woman": 5649,
      "प्रभावी": 5650,
      "que": 5651,
      "pure": 5652,
      "trip": 5653,
      "Were": 5654,
      "trend": 5655,
      "worse": 5656,
      "grat": 5657,
      "sets": 5658,
      "constantly": 5659,
      "relevant": 5660,
      "Grand": 5661,
      "Crime": 5662,
      "difficulties": 5663,
      "पूछता": 5664,
      "जाम": 5665,
      "Mount": 5666,
      "replace": 5667,
      "harassment": 5668,
      "SS": 5669,
      "pron": 5670,
      "फूल": 5671,
      "##asm": 5672,
      "Bag": 5673,
      "province": 5674,
      "theme": 5675,
      "row": 5676,
      "older": 5677,
      "wing": 5678,
      ",’": 5679,
      "everywhere": 5680,
      "surgery": 5681,
      "Exam": 5682,
      "micro": 5683,
      "images": 5684,
      "चीज": 5685,
      "साथी": 5686,
      "expression": 5687,
      "stones": 5688,
      "thereafter": 5689,
      "Private": 5690,
      "Merc": 5691,
      "##itis": 5692,
      "##ky": 5693,
      "package": 5694,
      "hasnt": 5695,
      "blind": 5696,
      "##दायक": 5697,
      "##no": 5698,
      "Very": 5699,
      "probably": 5700,
      "Right": 5701,
      "murdered": 5702,
      "Command": 5703,
      "tension": 5704,
      "marry": 5705,
      "cum": 5706,
      "##iant": 5707,
      "cloud": 5708,
      "fly": 5709,
      "intelligence": 5710,
      "rare": 5711,
      "Journal": 5712,
      "YouTube": 5713,
      "drop": 5714,
      "##owed": 5715,
      "sharp": 5716,
      "Jack": 5717,
      "continuing": 5718,
      "draft": 5719,
      "pill": 5720,
      "guide": 5721,
      "admission": 5722,
      "chain": 5723,
      "कहानी": 5724,
      "fathers": 5725,
      "instance": 5726,
      "##happ": 5727,
      "##NT": 5728,
      "Click": 5729,
      "pattern": 5730,
      "organizations": 5731,
      "impossible": 5732,
      "लेखक": 5733,
      "##ching": 5734,
      "havent": 5735,
      "enemy": 5736,
      "poster": 5737,
      "##hera": 5738,
      "snow": 5739,
      "although": 5740,
      "dreams": 5741,
      "कही": 5742,
      "dim": 5743,
      "##नाक": 5744,
      "alternative": 5745,
      "THE": 5746,
      "theft": 5747,
      "Abu": 5748,
      "habit": 5749,
      "purposes": 5750,
      "garb": 5751,
      "initially": 5752,
      "##friend": 5753,
      "keeps": 5754,
      "nomination": 5755,
      "tells": 5756,
      "church": 5757,
      "complained": 5758,
      "सहमति": 5759,
      "bought": 5760,
      "minute": 5761,
      "burning": 5762,
      "uns": 5763,
      "बलात्कार": 5764,
      "Wr": 5765,
      "Card": 5766,
      "सुझाव": 5767,
      "Church": 5768,
      "obtained": 5769,
      "खाने": 5770,
      "इंटरनेट": 5771,
      "facts": 5772,
      "##RE": 5773,
      "Valley": 5774,
      "grew": 5775,
      "larger": 5776,
      "healthcare": 5777,
      "skill": 5778,
      "error": 5779,
      "staying": 5780,
      "://": 5781,
      "honor": 5782,
      "सोने": 5783,
      "uses": 5784,
      "blocked": 5785,
      "unp": 5786,
      "सकारात्मक": 5787,
      "solve": 5788,
      "##pan": 5789,
      "absence": 5790,
      "##AB": 5791,
      "दौरा": 5792,
      "कक्षा": 5793,
      "Still": 5794,
      "Summit": 5795,
      "stomach": 5796,
      "Top": 5797,
      "tight": 5798,
      "Care": 5799,
      "empty": 5800,
      "hind": 5801,
      "disaster": 5802,
      "Young": 5803,
      "expectations": 5804,
      "##ti": 5805,
      "expensive": 5806,
      "pump": 5807,
      "mutual": 5808,
      "Eff": 5809,
      "improving": 5810,
      "मुद्दों": 5811,
      "##oph": 5812,
      "friendship": 5813,
      "सारा": 5814,
      "खेला": 5815,
      "methods": 5816,
      "participants": 5817,
      "valu": 5818,
      "messages": 5819,
      "परेशान": 5820,
      "वकील": 5821,
      "amazing": 5822,
      "NS": 5823,
      "mothers": 5824,
      "convention": 5825,
      "hits": 5826,
      "##isted": 5827,
      "courses": 5828,
      "शुद्ध": 5829,
      "shape": 5830,
      "renew": 5831,
      "stab": 5832,
      "वास्तविक": 5833,
      "mixed": 5834,
      "sheep": 5835,
      "आती": 5836,
      "politician": 5837,
      "##essed": 5838,
      "तत्काल": 5839,
      "employee": 5840,
      "##ीप": 5841,
      "knowing": 5842,
      "देगा": 5843,
      "concluded": 5844,
      "decline": 5845,
      "##fully": 5846,
      "fighter": 5847,
      "##जनक": 5848,
      "Protection": 5849,
      "Again": 5850,
      "Brother": 5851,
      "##icts": 5852,
      "filing": 5853,
      "dialogue": 5854,
      "struck": 5855,
      "देती": 5856,
      "letters": 5857,
      "##otic": 5858,
      "figures": 5859,
      "analy": 5860,
      "ट्रक": 5861,
      "anybody": 5862,
      "crack": 5863,
      "vib": 5864,
      "contribute": 5865,
      "bread": 5866,
      "bron": 5867,
      "##ancer": 5868,
      "तैयारी": 5869,
      "favourite": 5870,
      "##raw": 5871,
      "slight": 5872,
      "##yers": 5873,
      "gear": 5874,
      "sab": 5875,
      "recommendations": 5876,
      "Old": 5877,
      "overt": 5878,
      "situated": 5879,
      "camps": 5880,
      "पशु": 5881,
      "##abi": 5882,
      "universities": 5883,
      "participating": 5884,
      "ends": 5885,
      "छोटी": 5886,
      "EV": 5887,
      "reaction": 5888,
      "mang": 5889,
      "calm": 5890,
      "personality": 5891,
      "guests": 5892,
      "abuse": 5893,
      "entering": 5894,
      "allows": 5895,
      "requirements": 5896,
      "Britain": 5897,
      "searching": 5898,
      "##ele": 5899,
      "sites": 5900,
      "promoting": 5901,
      "thanks": 5902,
      "researchers": 5903,
      "hes": 5904,
      "locations": 5905,
      "chest": 5906,
      "drivers": 5907,
      "copy": 5908,
      "dress": 5909,
      "experiences": 5910,
      "corner": 5911,
      "Jade": 5912,
      "##inating": 5913,
      "raising": 5914,
      "eager": 5915,
      "##rition": 5916,
      "चीज़": 5917,
      "##itors": 5918,
      "संसाधन": 5919,
      "ly": 5920,
      "Had": 5921,
      "##US": 5922,
      "gained": 5923,
      "Was": 5924,
      "garden": 5925,
      "burden": 5926,
      "promotion": 5927,
      "अफ्रीका": 5928,
      "ho": 5929,
      "Dani": 5930,
      "existence": 5931,
      "spending": 5932,
      "artists": 5933,
      "Bay": 5934,
      "click": 5935,
      "fulfill": 5936,
      "तुरंत": 5937,
      "crash": 5938,
      "विश्‍वास": 5939,
      "sufficient": 5940,
      "fix": 5941,
      "प्रेरित": 5942,
      "sed": 5943,
      "conscious": 5944,
      "पर्याप्त": 5945,
      "violent": 5946,
      "regime": 5947,
      "blessed": 5948,
      "listed": 5949,
      "smooth": 5950,
      "स्वामी": 5951,
      "considering": 5952,
      "arrival": 5953,
      "deeply": 5954,
      "Obama": 5955,
      "distancing": 5956,
      "retail": 5957,
      "10th": 5958,
      "सारी": 5959,
      "solutions": 5960,
      "जला": 5961,
      "आपका": 5962,
      "Otherwise": 5963,
      "##pati": 5964,
      "enemies": 5965,
      "रोकने": 5966,
      "Alex": 5967,
      "साधारण": 5968,
      "lag": 5969,
      "diabetes": 5970,
      "encouraged": 5971,
      "cart": 5972,
      "theatre": 5973,
      "tourist": 5974,
      "construct": 5975,
      "rapidly": 5976,
      "zone": 5977,
      "ec": 5978,
      "legs": 5979,
      "characters": 5980,
      "gradually": 5981,
      "मिलता": 5982,
      "##ille": 5983,
      "org": 5984,
      "fallen": 5985,
      "भोजन": 5986,
      "breast": 5987,
      "settled": 5988,
      "performing": 5989,
      "alongside": 5990,
      "Sure": 5991,
      "तीव्र": 5992,
      "collapsed": 5993,
      "drawn": 5994,
      "fundamental": 5995,
      "gap": 5996,
      "theres": 5997,
      "bin": 5998,
      "pit": 5999,
      "1984": 6000,
      "धक्का": 6001,
      "delayed": 6002,
      "advocate": 6003,
      "trials": 6004,
      "acid": 6005,
      "Next": 6006,
      "consideration": 6007,
      "dates": 6008,
      "##cribed": 6009,
      "AS": 6010,
      "Master": 6011,
      "controversial": 6012,
      "##EE": 6013,
      "reflect": 6014,
      "##IN": 6015,
      "limits": 6016,
      "servant": 6017,
      "##liest": 6018,
      "chat": 6019,
      "CH": 6020,
      "duties": 6021,
      "enjoyed": 6022,
      "replaced": 6023,
      "लेना": 6024,
      "pages": 6025,
      "moral": 6026,
      "2nd": 6027,
      "winner": 6028,
      "Parents": 6029,
      "outstanding": 6030,
      "##field": 6031,
      "assistant": 6032,
      "##ori": 6033,
      "sheet": 6034,
      "controlled": 6035,
      "breaking": 6036,
      "AD": 6037,
      "boat": 6038,
      "Ms": 6039,
      "Build": 6040,
      "grams": 6041,
      "##lers": 6042,
      "destruction": 6043,
      "ensuring": 6044,
      "Line": 6045,
      "अनुरोध": 6046,
      "consumers": 6047,
      "##15": 6048,
      "##erved": 6049,
      "humanity": 6050,
      "consequences": 6051,
      "champ": 6052,
      "IR": 6053,
      "walked": 6054,
      "pair": 6055,
      "upper": 6056,
      "mine": 6057,
      "transactions": 6058,
      "Should": 6059,
      "attending": 6060,
      "जिम्मेदारी": 6061,
      "##TE": 6062,
      "channels": 6063,
      "advanced": 6064,
      "believes": 6065,
      "##mm": 6066,
      "kinds": 6067,
      "भरोसा": 6068,
      "minds": 6069,
      "रखना": 6070,
      "suit": 6071,
      "innoc": 6072,
      "##eding": 6073,
      "वेतन": 6074,
      "##angi": 6075,
      "suggestions": 6076,
      "Non": 6077,
      "amongst": 6078,
      "knock": 6079,
      "परियोजनाओं": 6080,
      "depend": 6081,
      "कड़ी": 6082,
      ".”": 6083,
      "nod": 6084,
      "##40": 6085,
      "articles": 6086,
      "totally": 6087,
      "##ble": 6088,
      "बदला": 6089,
      "misc": 6090,
      "hid": 6091,
      "आसान": 6092,
      "spotted": 6093,
      "गुरुवार": 6094,
      "crying": 6095,
      "550": 6096,
      "center": 6097,
      "depends": 6098,
      "Change": 6099,
      "temporary": 6100,
      "Could": 6101,
      "##liness": 6102,
      "demise": 6103,
      "sensitive": 6104,
      "Bum": 6105,
      "##eva": 6106,
      "तनाव": 6107,
      "SAD": 6108,
      "##onic": 6109,
      "manage": 6110,
      "waters": 6111,
      "capable": 6112,
      "आदर्श": 6113,
      "entertainment": 6114,
      "grass": 6115,
      "stranded": 6116,
      "बहन": 6117,
      "secondary": 6118,
      "easier": 6119,
      "fault": 6120,
      "##arr": 6121,
      "##inity": 6122,
      "##well": 6123,
      "visa": 6124,
      "principle": 6125,
      "लंबे": 6126,
      "appearance": 6127,
      "thorough": 6128,
      "Long": 6129,
      "neighbours": 6130,
      "foods": 6131,
      "maintaining": 6132,
      "तुम्हारी": 6133,
      "meal": 6134,
      "##do": 6135,
      "माँ": 6136,
      "OF": 6137,
      "बीमा": 6138,
      "likes": 6139,
      "Would": 6140,
      "retirement": 6141,
      "intention": 6142,
      "constant": 6143,
      "##mer": 6144,
      "functions": 6145,
      "environmental": 6146,
      "previously": 6147,
      "businesses": 6148,
      "बहि": 6149,
      "तट": 6150,
      "धन्यवाद": 6151,
      "चाहती": 6152,
      "dear": 6153,
      "##sters": 6154,
      "टिप्पणी": 6155,
      "steel": 6156,
      "],": 6157,
      "poetry": 6158,
      "].": 6159,
      "challenged": 6160,
      "Mobile": 6161,
      "दृश्य": 6162,
      "सकें": 6163,
      "हथियार": 6164,
      "united": 6165,
      "धीरे": 6166,
      "carefully": 6167,
      "spr": 6168,
      "BE": 6169,
      "starred": 6170,
      "attempts": 6171,
      "1997": 6172,
      "adopt": 6173,
      "shout": 6174,
      "Poo": 6175,
      "##rer": 6176,
      "IAF": 6177,
      "##pm": 6178,
      "surr": 6179,
      "lamp": 6180,
      "positions": 6181,
      "नियमों": 6182,
      "env": 6183,
      "Chin": 6184,
      "negoti": 6185,
      "Chir": 6186,
      "peak": 6187,
      "##UB": 6188,
      "Prince": 6189,
      "overcome": 6190,
      "##uary": 6191,
      "shocking": 6192,
      "None": 6193,
      "शूटिंग": 6194,
      "closer": 6195,
      "tears": 6196,
      "integrity": 6197,
      "Nas": 6198,
      "communal": 6199,
      "pilot": 6200,
      "qualities": 6201,
      "Kim": 6202,
      "पूछा": 6203,
      "##ICI": 6204,
      "regret": 6205,
      "\\-": 6206,
      "concerning": 6207,
      "approximately": 6208,
      "telling": 6209,
      "coastal": 6210,
      "ease": 6211,
      "sending": 6212,
      "##lad": 6213,
      "flat": 6214,
      "shortly": 6215,
      "turning": 6216,
      "jam": 6217,
      "practical": 6218,
      "targeted": 6219,
      "आत्मा": 6220,
      "brut": 6221,
      "tied": 6222,
      "lights": 6223,
      "Without": 6224,
      "relating": 6225,
      "Sav": 6226,
      "##iar": 6227,
      "protein": 6228,
      "subjects": 6229,
      "flo": 6230,
      "##rage": 6231,
      "nice": 6232,
      "Michael": 6233,
      "अक्सर": 6234,
      "कहने": 6235,
      "Bob": 6236,
      "अधिकांश": 6237,
      "450": 6238,
      "शराब": 6239,
      "technologies": 6240,
      "purchased": 6241,
      "Tell": 6242,
      "chick": 6243,
      "appar": 6244,
      "##place": 6245,
      "radio": 6246,
      "हस्ताक्षर": 6247,
      "Ill": 6248,
      "##off": 6249,
      "dollar": 6250,
      "##dy": 6251,
      "investments": 6252,
      "Number": 6253,
      "exhibition": 6254,
      "बुद्धि": 6255,
      "tall": 6256,
      "rooms": 6257,
      "घरों": 6258,
      "contributed": 6259,
      "stressed": 6260,
      "piece": 6261,
      "##aza": 6262,
      "vin": 6263,
      "shell": 6264,
      "होनी": 6265,
      "बातों": 6266,
      "witnesses": 6267,
      "Remember": 6268,
      "kitchen": 6269,
      "tack": 6270,
      "unfortunate": 6271,
      "expenses": 6272,
      "roof": 6273,
      "everybody": 6274,
      "hide": 6275,
      "discipline": 6276,
      "जानता": 6277,
      "unless": 6278,
      "psych": 6279,
      "maintenance": 6280,
      "womens": 6281,
      "monthly": 6282,
      "supposed": 6283,
      "mood": 6284,
      "turns": 6285,
      "behaviour": 6286,
      "##च्छा": 6287,
      "Da": 6288,
      "Boy": 6289,
      "mountains": 6290,
      "honey": 6291,
      "##tel": 6292,
      "Schools": 6293,
      "poison": 6294,
      "visits": 6295,
      "severely": 6296,
      "requirement": 6297,
      "hanging": 6298,
      "tenure": 6299,
      "format": 6300,
      "जाहिर": 6301,
      "नौकरी": 6302,
      "reduction": 6303,
      "sins": 6304,
      "reducing": 6305,
      "कमजोर": 6306,
      "involvement": 6307,
      "holiday": 6308,
      "external": 6309,
      "recognition": 6310,
      "meets": 6311,
      "transmission": 6312,
      "वहाँ": 6313,
      "teen": 6314,
      "excited": 6315,
      "Perhaps": 6316,
      "isolated": 6317,
      "escaped": 6318,
      "aside": 6319,
      "##lot": 6320,
      "##aro": 6321,
      "insult": 6322,
      "ya": 6323,
      "Plus": 6324,
      "buying": 6325,
      "मिनट": 6326,
      "Auto": 6327,
      "procedure": 6328,
      "professor": 6329,
      "slowly": 6330,
      "chit": 6331,
      "bullet": 6332,
      "Nor": 6333,
      "Meeting": 6334,
      "finals": 6335,
      "marketing": 6336,
      "1500": 6337,
      "Tam": 6338,
      "Center": 6339,
      "##ape": 6340,
      "recognized": 6341,
      "##ties": 6342,
      "taxes": 6343,
      "aimed": 6344,
      "pivotal": 6345,
      "cord": 6346,
      "PC": 6347,
      "beds": 6348,
      "Mexico": 6349,
      "applicable": 6350,
      "walls": 6351,
      "fool": 6352,
      "bigger": 6353,
      "keen": 6354,
      "cured": 6355,
      "Survey": 6356,
      "comfortable": 6357,
      "reserved": 6358,
      "nag": 6359,
      "quiet": 6360,
      "cooking": 6361,
      "reference": 6362,
      "arrive": 6363,
      "miles": 6364,
      "सम्मानित": 6365,
      "disappear": 6366,
      "अज्ञात": 6367,
      "kindness": 6368,
      "नाटक": 6369,
      "continuously": 6370,
      "Must": 6371,
      "Joe": 6372,
      ",...": 6373,
      "corporate": 6374,
      "convicted": 6375,
      "chances": 6376,
      "earliest": 6377,
      "SIT": 6378,
      "housing": 6379,
      "Money": 6380,
      "SE": 6381,
      "discovered": 6382,
      "तोड़": 6383,
      "बताते": 6384,
      "focused": 6385,
      "seemed": 6386,
      "shelter": 6387,
      "email": 6388,
      "##________": 6389,
      "##ially": 6390,
      "hell": 6391,
      "Coast": 6392,
      "survive": 6393,
      "Medic": 6394,
      "improvement": 6395,
      "दर्द": 6396,
      "isn": 6397,
      "distress": 6398,
      "prompt": 6399,
      "aspect": 6400,
      "complic": 6401,
      "##aze": 6402,
      "##heet": 6403,
      "##hor": 6404,
      "metal": 6405,
      "##cer": 6406,
      "crew": 6407,
      "portal": 6408,
      "##apping": 6409,
      "suitable": 6410,
      "होटल": 6411,
      "hopes": 6412,
      "pretty": 6413,
      "precious": 6414,
      "जोखिम": 6415,
      "खाना": 6416,
      "##life": 6417,
      "भय": 6418,
      "parking": 6419,
      "योजनाओं": 6420,
      "रहना": 6421,
      "लड़की": 6422,
      "processing": 6423,
      ").\"": 6424,
      "Chem": 6425,
      "Daniel": 6426,
      "input": 6427,
      "##grad": 6428,
      "finding": 6429,
      "plus": 6430,
      "missile": 6431,
      "preparation": 6432,
      "RE": 6433,
      "voted": 6434,
      "##tery": 6435,
      "immig": 6436,
      "chapter": 6437,
      "tongue": 6438,
      "ped": 6439,
      "repeatedly": 6440,
      "depth": 6441,
      "समझौता": 6442,
      "ज़्यादा": 6443,
      "fib": 6444,
      "Sep": 6445,
      "Bre": 6446,
      "solid": 6447,
      "loves": 6448,
      "speaks": 6449,
      "##ulating": 6450,
      "punished": 6451,
      "##ologist": 6452,
      "inspiration": 6453,
      "reveal": 6454,
      "Korean": 6455,
      "दुःख": 6456,
      "##erson": 6457,
      "औसत": 6458,
      "otherwise": 6459,
      "115": 6460,
      "listening": 6461,
      "bottom": 6462,
      "hate": 6463,
      "coffee": 6464,
      "Being": 6465,
      "इन्हें": 6466,
      "Ron": 6467,
      "apps": 6468,
      "seeks": 6469,
      "surprising": 6470,
      "Mul": 6471,
      "ordinary": 6472,
      "pregnancy": 6473,
      "agenda": 6474,
      "Help": 6475,
      "मोड": 6476,
      "##atio": 6477,
      "Credit": 6478,
      "धमकी": 6479,
      "absolutely": 6480,
      "personally": 6481,
      "बीमारी": 6482,
      "stages": 6483,
      "##PG": 6484,
      "750": 6485,
      "pleasure": 6486,
      "hidden": 6487,
      "शारीरिक": 6488,
      "3rd": 6489,
      "##17": 6490,
      "arranged": 6491,
      "kills": 6492,
      "decade": 6493,
      "कानूनी": 6494,
      "mechanism": 6495,
      "destination": 6496,
      "SO": 6497,
      "End": 6498,
      "##rin": 6499,
      "Museum": 6500,
      "mistakes": 6501,
      "links": 6502,
      "Independent": 6503,
      "Pacific": 6504,
      "doors": 6505,
      "reviewed": 6506,
      "Eat": 6507,
      "glad": 6508,
      "devotion": 6509,
      "termed": 6510,
      "Hell": 6511,
      "difficulty": 6512,
      "Minor": 6513,
      "touched": 6514,
      "सच्चा": 6515,
      "heavenly": 6516,
      "फिट": 6517,
      "locked": 6518,
      "California": 6519,
      "काट": 6520,
      "pool": 6521,
      "iv": 6522,
      "wounded": 6523,
      "इतनी": 6524,
      "discount": 6525,
      "stronger": 6526,
      "immense": 6527,
      "liked": 6528,
      "extension": 6529,
      "whereas": 6530,
      "eggs": 6531,
      "blame": 6532,
      "wives": 6533,
      "attached": 6534,
      "cautious": 6535,
      "##odi": 6536,
      "ट्रांस": 6537,
      "Self": 6538,
      "##rig": 6539,
      "seventh": 6540,
      "officially": 6541,
      "generations": 6542,
      "Manager": 6543,
      "Whatever": 6544,
      "सीधे": 6545,
      "##ques": 6546,
      "theory": 6547,
      "confusion": 6548,
      "wasn": 6549,
      "kick": 6550,
      "grateful": 6551,
      "percentage": 6552,
      "blamed": 6553,
      "Mac": 6554,
      "Thr": 6555,
      "##uct": 6556,
      "175": 6557,
      "lawyers": 6558,
      "shed": 6559,
      "stuck": 6560,
      "compassion": 6561,
      "पीड़ित": 6562,
      "covering": 6563,
      "liquid": 6564,
      "Pray": 6565,
      "examine": 6566,
      "satisfied": 6567,
      "neighbouring": 6568,
      "combat": 6569,
      "cycle": 6570,
      "interaction": 6571,
      "protected": 6572,
      "solved": 6573,
      "customer": 6574,
      "##abb": 6575,
      "lesson": 6576,
      "Mang": 6577,
      "##olt": 6578,
      "representative": 6579,
      "darkness": 6580,
      "मेहनत": 6581,
      "consists": 6582,
      "painful": 6583,
      "Spanish": 6584,
      "Cast": 6585,
      "counting": 6586,
      "situations": 6587,
      "ramp": 6588,
      "equipped": 6589,
      "depr": 6590,
      "दैनिक": 6591,
      "1989": 6592,
      "arrangement": 6593,
      "forec": 6594,
      "पड़ता": 6595,
      "साधन": 6596,
      "writes": 6597,
      "allowing": 6598,
      "disappointed": 6599,
      "कहता": 6600,
      "##log": 6601,
      "occasions": 6602,
      "golden": 6603,
      "Surely": 6604,
      "उठाया": 6605,
      "expanded": 6606,
      "combination": 6607,
      "Sher": 6608,
      "AK": 6609,
      "TO": 6610,
      "संपत्ति": 6611,
      "alt": 6612,
      "prizes": 6613,
      "lad": 6614,
      "incon": 6615,
      "explo": 6616,
      "soldier": 6617,
      "involving": 6618,
      "hunger": 6619,
      "ber": 6620,
      "actual": 6621,
      "update": 6622,
      "poly": 6623,
      "thick": 6624,
      "ginger": 6625,
      "planet": 6626,
      "colleagues": 6627,
      "relationships": 6628,
      "##kka": 6629,
      "बीमार": 6630,
      "3000": 6631,
      "households": 6632,
      "detail": 6633,
      "isolation": 6634,
      "ring": 6635,
      "Drug": 6636,
      "Sit": 6637,
      "लड़ाई": 6638,
      "कच": 6639,
      "singing": 6640,
      "patience": 6641,
      "!!": 6642,
      "significance": 6643,
      "raw": 6644,
      "तर्क": 6645,
      "flying": 6646,
      "swim": 6647,
      "तिथि": 6648,
      "produces": 6649,
      "sessions": 6650,
      "रेखा": 6651,
      "Everybody": 6652,
      "effectively": 6653,
      "स्वस्थ": 6654,
      "sustainable": 6655,
      "Same": 6656,
      "अनंत": 6657,
      "comprehensive": 6658,
      "gains": 6659,
      "Snap": 6660,
      "anticip": 6661,
      "Anti": 6662,
      "veteran": 6663,
      "portion": 6664,
      "असली": 6665,
      "frequently": 6666,
      "remembered": 6667,
      "grave": 6668,
      "succumb": 6669,
      "ब्याज": 6670,
      "moves": 6671,
      "यूनिवर्सिटी": 6672,
      "chopped": 6673,
      "Hand": 6674,
      "remote": 6675,
      "prefer": 6676,
      "significantly": 6677,
      "administered": 6678,
      "dwell": 6679,
      "backed": 6680,
      "forgive": 6681,
      "Organization": 6682,
      "Ta": 6683,
      "विजेता": 6684,
      "deposit": 6685,
      "fees": 6686,
      "श्रृंखला": 6687,
      "yourselves": 6688,
      "chose": 6689,
      "clock": 6690,
      "innocent": 6691,
      "hack": 6692,
      "alarm": 6693,
      "Christmas": 6694,
      "deny": 6695,
      "continuous": 6696,
      "समझौते": 6697,
      "desc": 6698,
      "flags": 6699,
      "Prevention": 6700,
      "Safety": 6701,
      "museum": 6702,
      "operate": 6703,
      "क्लिक": 6704,
      "lifted": 6705,
      "15th": 6706,
      "Housing": 6707,
      "##osure": 6708,
      "जू": 6709,
      "Den": 6710,
      "ideal": 6711,
      "shoulder": 6712,
      "सर्वेक्षण": 6713,
      "exceed": 6714,
      "observe": 6715,
      "smaller": 6716,
      "yoga": 6717,
      "gratitude": 6718,
      "Bath": 6719,
      "outcome": 6720,
      "##idi": 6721,
      "silence": 6722,
      "pepper": 6723,
      "##fl": 6724,
      "exit": 6725,
      "Golden": 6726,
      "राजस्व": 6727,
      "corporation": 6728,
      "आपने": 6729,
      "Support": 6730,
      "वजन": 6731,
      "doz": 6732,
      "SI": 6733,
      "specified": 6734,
      "Light": 6735,
      "बुनियादी": 6736,
      "103": 6737,
      "mol": 6738,
      "चली": 6739,
      "न्यूनतम": 6740,
      "sung": 6741,
      "responsibilities": 6742,
      "20th": 6743,
      "##AY": 6744,
      "##टिंग": 6745,
      "Cam": 6746,
      "इंतजार": 6747,
      "CC": 6748,
      "invitation": 6749,
      "##fare": 6750,
      "tag": 6751,
      "बैठे": 6752,
      "Talking": 6753,
      "grab": 6754,
      "Hill": 6755,
      "डाला": 6756,
      "dealing": 6757,
      "Need": 6758,
      "obvious": 6759,
      "भरा": 6760,
      "sleeping": 6761,
      "guided": 6762,
      "royal": 6763,
      "anymore": 6764,
      "zero": 6765,
      "possess": 6766,
      "rush": 6767,
      "##rable": 6768,
      "वैसे": 6769,
      "##TA": 6770,
      "Technical": 6771,
      "fatal": 6772,
      "charging": 6773,
      "बेशक": 6774,
      "tool": 6775,
      "displayed": 6776,
      "judgement": 6777,
      "passion": 6778,
      "pled": 6779,
      "retali": 6780,
      "phen": 6781,
      "divorce": 6782,
      "शिकार": 6783,
      "चलता": 6784,
      "zones": 6785,
      "Holy": 6786,
      "stability": 6787,
      "##ilo": 6788,
      "rub": 6789,
      "admit": 6790,
      "##rey": 6791,
      "Typ": 6792,
      "pulled": 6793,
      "intervention": 6794,
      "अनुकूल": 6795,
      "माफी": 6796,
      "finger": 6797,
      "bills": 6798,
      "weapon": 6799,
      "किशोर": 6800,
      "उत्साह": 6801,
      "101": 6802,
      "Fac": 6803,
      "covenant": 6804,
      "pel": 6805,
      "toilet": 6806,
      "sees": 6807,
      "surrounding": 6808,
      "छाया": 6809,
      "दशक": 6810,
      "##rating": 6811,
      "assigned": 6812,
      "रखें": 6813,
      "strikes": 6814,
      "thrown": 6815,
      "transportation": 6816,
      "नष्ट": 6817,
      "Working": 6818,
      "collision": 6819,
      "mild": 6820,
      "evalu": 6821,
      "assessment": 6822,
      "conclusion": 6823,
      "##hs": 6824,
      "celebrating": 6825,
      "भूल": 6826,
      "imagine": 6827,
      "profile": 6828,
      "निपटने": 6829,
      "wished": 6830,
      "समझा": 6831,
      "Border": 6832,
      "supplied": 6833,
      "parent": 6834,
      "अरे": 6835,
      "fitness": 6836,
      "comedy": 6837,
      "AR": 6838,
      "whats": 6839,
      "forgotten": 6840,
      "lowest": 6841,
      "ice": 6842,
      "faster": 6843,
      "kidney": 6844,
      "lady": 6845,
      "##pe": 6846,
      "fer": 6847,
      "Ever": 6848,
      "सहयोगी": 6849,
      "##mon": 6850,
      "DNA": 6851,
      "ups": 6852,
      "Hold": 6853,
      "minority": 6854,
      "associate": 6855,
      "payments": 6856,
      "उपयुक्त": 6857,
      "Pra": 6858,
      "greatly": 6859,
      "Aud": 6860,
      "flower": 6861,
      "strange": 6862,
      "paste": 6863,
      "funding": 6864,
      "recon": 6865,
      "हाथों": 6866,
      "unpre": 6867,
      "achievements": 6868,
      "driven": 6869,
      "Gos": 6870,
      "mixture": 6871,
      "प्रकट": 6872,
      "Mer": 6873,
      "Northern": 6874,
      "sworn": 6875,
      "depression": 6876,
      "noticed": 6877,
      "व्याख्या": 6878,
      "tools": 6879,
      "gender": 6880,
      "heavily": 6881,
      "segment": 6882,
      "Jewish": 6883,
      "root": 6884,
      "grounds": 6885,
      "arrives": 6886,
      "consumer": 6887,
      "##ado": 6888,
      "दिखाया": 6889,
      "withdrawal": 6890,
      "बजाय": 6891,
      "Rules": 6892,
      "##ulous": 6893,
      "breaks": 6894,
      "variants": 6895,
      "##iest": 6896,
      "managing": 6897,
      "##mph": 6898,
      "abandoned": 6899,
      "affair": 6900,
      "triggered": 6901,
      "lots": 6902,
      "collapse": 6903,
      "programs": 6904,
      "##fa": 6905,
      "##rest": 6906,
      "prescribed": 6907,
      "दोपहर": 6908,
      "flee": 6909,
      "Moon": 6910,
      "hence": 6911,
      "entirely": 6912,
      "trick": 6913,
      "wrest": 6914,
      "Prob": 6915,
      "educated": 6916,
      "21st": 6917,
      "जल्दी": 6918,
      "audio": 6919,
      "##ete": 6920,
      "शरण": 6921,
      "ven": 6922,
      "dedication": 6923,
      "rac": 6924,
      "blessing": 6925,
      "लिंक": 6926,
      "##rot": 6927,
      "##ribe": 6928,
      "Review": 6929,
      "कठोर": 6930,
      "inconven": 6931,
      "contrast": 6932,
      "Hollywood": 6933,
      "जॉन": 6934,
      "dish": 6935,
      "reaches": 6936,
      "badly": 6937,
      "supports": 6938,
      "Thanks": 6939,
      "smile": 6940,
      "Flip": 6941,
      "खेत": 6942,
      "##hea": 6943,
      "rot": 6944,
      "appreciate": 6945,
      "generated": 6946,
      "grace": 6947,
      "bull": 6948,
      "engage": 6949,
      "##OL": 6950,
      "attrib": 6951,
      "desp": 6952,
      "हाँ": 6953,
      "primarily": 6954,
      "समस्याओं": 6955,
      "popularity": 6956,
      "exists": 6957,
      "merely": 6958,
      "greetings": 6959,
      "processor": 6960,
      "volume": 6961,
      "butter": 6962,
      "sham": 6963,
      "Text": 6964,
      "##rator": 6965,
      "bother": 6966,
      "Construction": 6967,
      "declare": 6968,
      "satisfaction": 6969,
      "cutting": 6970,
      "जाया": 6971,
      "##bat": 6972,
      "writers": 6973,
      "पदों": 6974,
      "जिम्मेदार": 6975,
      "Workers": 6976,
      "bud": 6977,
      "overw": 6978,
      "traditions": 6979,
      "mit": 6980,
      "saving": 6981,
      "बुरा": 6982,
      "idol": 6983,
      "valley": 6984,
      "##uded": 6985,
      "छोटा": 6986,
      "league": 6987,
      "relative": 6988,
      "Tik": 6989,
      "Expl": 6990,
      "Italian": 6991,
      "##hand": 6992,
      "allotted": 6993,
      "##lines": 6994,
      "borrow": 6995,
      "ras": 6996,
      "cleared": 6997,
      "competitive": 6998,
      "##TH": 6999,
      "समर्पित": 7000,
      "arguments": 7001,
      "Gol": 7002,
      "rans": 7003,
      "contacted": 7004,
      "##eo": 7005,
      "philosophy": 7006,
      "##nal": 7007,
      "exposed": 7008,
      "plenty": 7009,
      "स्मृति": 7010,
      "smoke": 7011,
      "रास्ते": 7012,
      "##arp": 7013,
      "valuable": 7014,
      "वादा": 7015,
      "finish": 7016,
      "##avo": 7017,
      "seconds": 7018,
      "##rag": 7019,
      "हफ्ते": 7020,
      "##anim": 7021,
      "mail": 7022,
      "sexually": 7023,
      "tired": 7024,
      "आरोपों": 7025,
      "metro": 7026,
      "बॉक्स": 7027,
      "Ga": 7028,
      "Short": 7029,
      "##ipt": 7030,
      "affordable": 7031,
      "tips": 7032,
      "##200": 7033,
      "उठाने": 7034,
      "smartphones": 7035,
      "encouraging": 7036,
      "Body": 7037,
      "कठिन": 7038,
      "dump": 7039,
      "रखता": 7040,
      "adults": 7041,
      "एटी": 7042,
      "##mates": 7043,
      "notified": 7044,
      "resort": 7045,
      "जाओ": 7046,
      "##ctory": 7047,
      "Picture": 7048,
      "Network": 7049,
      "##IG": 7050,
      "lift": 7051,
      "dogs": 7052,
      "dinner": 7053,
      "supplies": 7054,
      "resulting": 7055,
      "desires": 7056,
      "slightly": 7057,
      "removal": 7058,
      "relation": 7059,
      "##gam": 7060,
      "जाएँ": 7061,
      "determine": 7062,
      "appearing": 7063,
      "खून": 7064,
      "ढंग": 7065,
      "##ls": 7066,
      "efficiency": 7067,
      "corresponding": 7068,
      "Lake": 7069,
      "MD": 7070,
      "routes": 7071,
      "advers": 7072,
      "discrimination": 7073,
      "combined": 7074,
      "rein": 7075,
      "weakness": 7076,
      "prayed": 7077,
      "plot": 7078,
      "बुरी": 7079,
      "beings": 7080,
      "Ly": 7081,
      "acceptable": 7082,
      "Bri": 7083,
      "##bi": 7084,
      "bags": 7085,
      "button": 7086,
      "Employment": 7087,
      "135": 7088,
      "##odes": 7089,
      "affection": 7090,
      "painting": 7091,
      "dignity": 7092,
      "anxiety": 7093,
      "voc": 7094,
      "ignored": 7095,
      "Ask": 7096,
      "arrests": 7097,
      "brown": 7098,
      "##onia": 7099,
      "शब्दों": 7100,
      "extreme": 7101,
      "cleaning": 7102,
      "hotels": 7103,
      "pursue": 7104,
      "##bl": 7105,
      "midst": 7106,
      "पकड़": 7107,
      "##LE": 7108,
      "jack": 7109,
      "harmful": 7110,
      "enthusiasm": 7111,
      "hosts": 7112,
      "gall": 7113,
      "##ae": 7114,
      "scenes": 7115,
      "##org": 7116,
      "मकान": 7117,
      "fabric": 7118,
      "explains": 7119,
      "Maldives": 7120,
      "invite": 7121,
      "##14": 7122,
      "drain": 7123,
      "Anna": 7124,
      "ratio": 7125,
      "oldest": 7126,
      "forb": 7127,
      "छोड़कर": 7128,
      "doubts": 7129,
      "realize": 7130,
      "कितना": 7131,
      "latter": 7132,
      "Full": 7133,
      "screening": 7134,
      "Nic": 7135,
      "खाता": 7136,
      "बिल्कुल": 7137,
      "Catholic": 7138,
      "entrance": 7139,
      "##bing": 7140,
      "elephant": 7141,
      "निकाला": 7142,
      "##beat": 7143,
      "overwhel": 7144,
      "mere": 7145,
      "bitter": 7146,
      "filmmaker": 7147,
      "virtual": 7148,
      "element": 7149,
      "Cant": 7150,
      "garn": 7151,
      "Ye": 7152,
      "intense": 7153,
      "realise": 7154,
      "चुनावी": 7155,
      "1986": 7156,
      "Ern": 7157,
      "twenty": 7158,
      "dated": 7159,
      "wine": 7160,
      "aged": 7161,
      "बदले": 7162,
      "सराहना": 7163,
      "disturb": 7164,
      "deadly": 7165,
      "wage": 7166,
      "##kg": 7167,
      "dollars": 7168,
      "wages": 7169,
      "650": 7170,
      "sul": 7171,
      "##मिट": 7172,
      "प्रोजेक्ट": 7173,
      "वाक्य": 7174,
      "Sex": 7175,
      "speaker": 7176,
      "Daily": 7177,
      "##oman": 7178,
      "Americans": 7179,
      "Seth": 7180,
      "कारणों": 7181,
      "needy": 7182,
      "topic": 7183,
      "rent": 7184,
      "Hyundai": 7185,
      "automatic": 7186,
      "negligence": 7187,
      "##arian": 7188,
      "library": 7189,
      "thereof": 7190,
      "hatred": 7191,
      "Silver": 7192,
      "PR": 7193,
      "##oria": 7194,
      "gad": 7195,
      "निशान": 7196,
      "couldn": 7197,
      "swing": 7198,
      "##mail": 7199,
      "behavior": 7200,
      "nan": 7201,
      "गुप्त": 7202,
      "scenario": 7203,
      "tragedy": 7204,
      "mans": 7205,
      "gross": 7206,
      "claiming": 7207,
      "ambulance": 7208,
      "चारों": 7209,
      "para": 7210,
      "boundaries": 7211,
      "enhanced": 7212,
      "gifts": 7213,
      "अपमान": 7214,
      "commonly": 7215,
      "Prices": 7216,
      "blow": 7217,
      "sli": 7218,
      "thereby": 7219,
      "dal": 7220,
      "attractive": 7221,
      "##ोम": 7222,
      "explanation": 7223,
      "wars": 7224,
      "loud": 7225,
      "अंतरिक्ष": 7226,
      "horse": 7227,
      "आश्चर्य": 7228,
      "thieves": 7229,
      "Liter": 7230,
      "reviews": 7231,
      "उपभोक्ता": 7232,
      "scar": 7233,
      "coordination": 7234,
      "equally": 7235,
      "19th": 7236,
      "##rs": 7237,
      "fighters": 7238,
      "cough": 7239,
      "math": 7240,
      "defined": 7241,
      "mentally": 7242,
      "कहाँ": 7243,
      "translated": 7244,
      "Ten": 7245,
      "adds": 7246,
      "##oka": 7247,
      "emotions": 7248,
      "affects": 7249,
      "118": 7250,
      "केंद्रित": 7251,
      "##time": 7252,
      "##SD": 7253,
      "##TP": 7254,
      "garbage": 7255,
      "residential": 7256,
      "एमएस": 7257,
      "shad": 7258,
      "whenever": 7259,
      "यौन": 7260,
      "extensive": 7261,
      "AL": 7262,
      "threats": 7263,
      "##outs": 7264,
      "GS": 7265,
      "brid": 7266,
      "tremendous": 7267,
      "buried": 7268,
      "washed": 7269,
      "IF": 7270,
      "fishing": 7271,
      "developments": 7272,
      "efficient": 7273,
      "jar": 7274,
      "opener": 7275,
      "Vol": 7276,
      "succeeded": 7277,
      "##qual": 7278,
      "physically": 7279,
      "lung": 7280,
      "manual": 7281,
      "##oshi": 7282,
      "चुप": 7283,
      "pleased": 7284,
      "memorial": 7285,
      "engineer": 7286,
      "settle": 7287,
      "narrow": 7288,
      "230": 7289,
      "interpret": 7290,
      "whoever": 7291,
      "chicken": 7292,
      "Select": 7293,
      "employed": 7294,
      "lifestyle": 7295,
      "myth": 7296,
      "##keeper": 7297,
      "Week": 7298,
      "largely": 7299,
      "stepped": 7300,
      "आराम": 7301,
      "involves": 7302,
      "1987": 7303,
      "toilets": 7304,
      "connections": 7305,
      "गज": 7306,
      "तथ्य": 7307,
      "tragic": 7308,
      "beach": 7309,
      "penn": 7310,
      "inner": 7311,
      "compuls": 7312,
      "Island": 7313,
      "रास्ता": 7314,
      "nearest": 7315,
      "bang": 7316,
      "बढ़ती": 7317,
      "Try": 7318,
      "generate": 7319,
      "Ireland": 7320,
      "cooperate": 7321,
      "covers": 7322,
      "ATM": 7323,
      "membership": 7324,
      "Vitamin": 7325,
      "Ball": 7326,
      "bold": 7327,
      "##mond": 7328,
      "Ok": 7329,
      "बादल": 7330,
      "Hotel": 7331,
      "upro": 7332,
      "trapped": 7333,
      "angel": 7334,
      "adjust": 7335,
      "backward": 7336,
      "##emi": 7337,
      "निरीक्षण": 7338,
      "सहमत": 7339,
      "बहस": 7340,
      "march": 7341,
      "checked": 7342,
      "volunteers": 7343,
      "threatening": 7344,
      "nim": 7345,
      "processes": 7346,
      "civilian": 7347,
      "frame": 7348,
      "##father": 7349,
      "##asta": 7350,
      "सड़": 7351,
      "##ads": 7352,
      "Unit": 7353,
      "cows": 7354,
      "Pictures": 7355,
      "genuine": 7356,
      "आसानी": 7357,
      "31st": 7358,
      "chill": 7359,
      "##OU": 7360,
      "thin": 7361,
      "portray": 7362,
      "Community": 7363,
      "weigh": 7364,
      "entitled": 7365,
      "कहती": 7366,
      "##oward": 7367,
      "मैन": 7368,
      "trace": 7369,
      "tennis": 7370,
      "महीनों": 7371,
      "Phase": 7372,
      "drunk": 7373,
      "सालों": 7374,
      "persp": 7375,
      "universe": 7376,
      "11th": 7377,
      "attempted": 7378,
      "Blood": 7379,
      "terrible": 7380,
      "बचाने": 7381,
      "introduce": 7382,
      "globe": 7383,
      "tweets": 7384,
      "इतने": 7385,
      "forgiveness": 7386,
      "confront": 7387,
      "defend": 7388,
      "वर्णन": 7389,
      "presentation": 7390,
      "drag": 7391,
      "Having": 7392,
      "creative": 7393,
      "?'": 7394,
      "निरंतर": 7395,
      "##achment": 7396,
      "Train": 7397,
      "##TION": 7398,
      "consent": 7399,
      "nas": 7400,
      "spring": 7401,
      "देखभाल": 7402,
      "passport": 7403,
      "blocks": 7404,
      "##WAR": 7405,
      "Mom": 7406,
      "orient": 7407,
      "##EA": 7408,
      "गर्भ": 7409,
      "Soviet": 7410,
      "refers": 7411,
      "5th": 7412,
      "जीवित": 7413,
      "##alis": 7414,
      "tear": 7415,
      "टूट": 7416,
      "दूसरों": 7417,
      "कितनी": 7418,
      "dose": 7419,
      "publish": 7420,
      "recognize": 7421,
      "##irect": 7422,
      "nose": 7423,
      "episode": 7424,
      "separated": 7425,
      "triple": 7426,
      "ears": 7427,
      "गोद": 7428,
      "intensified": 7429,
      "##sk": 7430,
      "सपना": 7431,
      "##rooms": 7432,
      "greeted": 7433,
      "immunity": 7434,
      "##isp": 7435,
      "updated": 7436,
      "##organ": 7437,
      "breathing": 7438,
      "overseas": 7439,
      "planted": 7440,
      "Cross": 7441,
      "engagement": 7442,
      "गर्व": 7443,
      "helpful": 7444,
      "donated": 7445,
      "##plex": 7446,
      "bind": 7447,
      "edge": 7448,
      "pic": 7449,
      "professionals": 7450,
      "https": 7451,
      "बढ़ने": 7452,
      "updates": 7453,
      "bell": 7454,
      "##MA": 7455,
      "default": 7456,
      "Cancer": 7457,
      "stores": 7458,
      "promoted": 7459,
      "##top": 7460,
      "PN": 7461,
      "riding": 7462,
      "federal": 7463,
      "VI": 7464,
      "5G": 7465,
      "predict": 7466,
      "Bat": 7467,
      "column": 7468,
      "4th": 7469,
      "Husband": 7470,
      "पैर": 7471,
      "sake": 7472,
      "teeth": 7473,
      "completing": 7474,
      "publication": 7475,
      "काले": 7476,
      "dependent": 7477,
      "addresses": 7478,
      "graduate": 7479,
      "unemployment": 7480,
      "stamp": 7481,
      "##point": 7482,
      "beating": 7483,
      "organic": 7484,
      "lessons": 7485,
      "usual": 7486,
      "कटौती": 7487,
      "contributions": 7488,
      "##hua": 7489,
      "Lot": 7490,
      "14th": 7491,
      "handling": 7492,
      "शुरूआत": 7493,
      "Dan": 7494,
      "parked": 7495,
      "कितने": 7496,
      "Pa": 7497,
      "##storm": 7498,
      "surrounded": 7499,
      "arise": 7500,
      "designated": 7501,
      "shopping": 7502,
      "guarantee": 7503,
      "stocks": 7504,
      "closure": 7505,
      "##iral": 7506,
      "SHO": 7507,
      "##uns": 7508,
      "split": 7509,
      "reasonable": 7510,
      "curfew": 7511,
      "everyday": 7512,
      "##burg": 7513,
      "Emergency": 7514,
      "deposits": 7515,
      "हद": 7516,
      "7th": 7517,
      "checking": 7518,
      "consume": 7519,
      "cream": 7520,
      "Emb": 7521,
      "MA": 7522,
      "password": 7523,
      "Eli": 7524,
      "Zone": 7525,
      "##comm": 7526,
      "rough": 7527,
      "240": 7528,
      "NO": 7529,
      "witnessing": 7530,
      "intended": 7531,
      "argued": 7532,
      "ending": 7533,
      "hopeful": 7534,
      "shoes": 7535,
      "equivalent": 7536,
      "accurate": 7537,
      "##lings": 7538,
      "familiar": 7539,
      "lunch": 7540,
      "परामर्श": 7541,
      "introduction": 7542,
      "utter": 7543,
      "prevention": 7544,
      "bars": 7545,
      "smoking": 7546,
      "turmeric": 7547,
      "steal": 7548,
      "couples": 7549,
      "violating": 7550,
      "concrete": 7551,
      "bef": 7552,
      "restaurant": 7553,
      "missed": 7554,
      "4000": 7555,
      "consuming": 7556,
      "license": 7557,
      "पत्थर": 7558,
      "plate": 7559,
      "##LD": 7560,
      "commented": 7561,
      "##hetic": 7562,
      "drawing": 7563,
      "resource": 7564,
      "moist": 7565,
      "realised": 7566,
      "disclosed": 7567,
      "routine": 7568,
      "चलाने": 7569,
      "कोड": 7570,
      "targets": 7571,
      "formula": 7572,
      "##FP": 7573,
      "consultation": 7574,
      "##bands": 7575,
      "##oning": 7576,
      "telephone": 7577,
      "Microsoft": 7578,
      "somewhere": 7579,
      "dad": 7580,
      "undergo": 7581,
      "moments": 7582,
      "pleasant": 7583,
      "originally": 7584,
      "romantic": 7585,
      "opens": 7586,
      "sacrifices": 7587,
      "Store": 7588,
      "travelled": 7589,
      "##ING": 7590,
      "signing": 7591,
      "dup": 7592,
      "haven": 7593,
      "लूट": 7594,
      "tackle": 7595,
      "नृत्य": 7596,
      "JP": 7597,
      "vulnerable": 7598,
      "item": 7599,
      "PA": 7600,
      "desired": 7601,
      "strictly": 7602,
      "Truth": 7603,
      "OP": 7604,
      "विश्लेषण": 7605,
      "tensions": 7606,
      "diverse": 7607,
      "tho": 7608,
      "urge": 7609,
      "Wi": 7610,
      "brave": 7611,
      "Medicine": 7612,
      "convinced": 7613,
      "personalities": 7614,
      "Wal": 7615,
      "qualify": 7616,
      "##ipin": 7617,
      "wai": 7618,
      "Canadian": 7619,
      "moderate": 7620,
      "Nokia": 7621,
      "##tho": 7622,
      "Junior": 7623,
      "prestigious": 7624,
      "wire": 7625,
      "##erated": 7626,
      "ransom": 7627,
      "bones": 7628,
      "experiment": 7629,
      "lashed": 7630,
      "vegetable": 7631,
      "चेहरे": 7632,
      "संवेदनशील": 7633,
      "savings": 7634,
      "distinct": 7635,
      "viewed": 7636,
      "!)": 7637,
      "meals": 7638,
      "ax": 7639,
      "ज़रूरत": 7640,
      "screens": 7641,
      "depending": 7642,
      "मरने": 7643,
      "disputes": 7644,
      "memories": 7645,
      "hasn": 7646,
      "enjoying": 7647,
      "vary": 7648,
      "घटनाओं": 7649,
      "noise": 7650,
      "actively": 7651,
      "om": 7652,
      "Asked": 7653,
      "creates": 7654,
      "relatively": 7655,
      "Dad": 7656,
      "supervision": 7657,
      "agent": 7658,
      "mutt": 7659,
      "देखिए": 7660,
      "grain": 7661,
      "##ittal": 7662,
      "Solar": 7663,
      "##lessly": 7664,
      "committing": 7665,
      "urgent": 7666,
      "bra": 7667,
      "देखना": 7668,
      "dying": 7669,
      "rah": 7670,
      "watched": 7671,
      "indicate": 7672,
      "sorry": 7673,
      "respected": 7674,
      "appr": 7675,
      "##WA": 7676,
      "##rt": 7677,
      "Turn": 7678,
      "heading": 7679,
      "flash": 7680,
      "cab": 7681,
      "चेहरा": 7682,
      "avoided": 7683,
      "16th": 7684,
      "आना": 7685,
      "Parm": 7686,
      "din": 7687,
      "slammed": 7688,
      "outfit": 7689,
      "realized": 7690,
      "कैंसर": 7691,
      "Within": 7692,
      "गर्म": 7693,
      "crossing": 7694,
      "warrant": 7695,
      "nutrition": 7696,
      "torment": 7697,
      "momentum": 7698,
      "DM": 7699,
      "liver": 7700,
      "influenced": 7701,
      "burst": 7702,
      "Area": 7703,
      "Ty": 7704,
      "sq": 7705,
      "windows": 7706,
      "doses": 7707,
      "उड़ान": 7708,
      "arent": 7709,
      "pushed": 7710,
      "1200": 7711,
      "annually": 7712,
      "खेलों": 7713,
      "##rist": 7714,
      "civilians": 7715,
      "teaser": 7716,
      "Fi": 7717,
      "circle": 7718,
      "बदलने": 7719,
      "inconvenience": 7720,
      "confessed": 7721,
      "Against": 7722,
      "BP": 7723,
      "##UC": 7724,
      "ah": 7725,
      "precautions": 7726,
      "Tech": 7727,
      "stating": 7728,
      "junior": 7729,
      "boundary": 7730,
      "risks": 7731,
      "संभाल": 7732,
      "##EN": 7733,
      "sadd": 7734,
      "musical": 7735,
      "Things": 7736,
      "curb": 7737,
      "objects": 7738,
      "temperatures": 7739,
      "beliefs": 7740,
      "शून्य": 7741,
      "tail": 7742,
      "deals": 7743,
      "##ca": 7744,
      "18th": 7745,
      "सरल": 7746,
      "cheap": 7747,
      "गार्ड": 7748,
      "divide": 7749,
      "humble": 7750,
      "pran": 7751,
      "tech": 7752,
      "immune": 7753,
      "ride": 7754,
      "प्रोफेसर": 7755,
      "Latin": 7756,
      "prohibited": 7757,
      "connecting": 7758,
      "shirt": 7759,
      "protecting": 7760,
      "##shi": 7761,
      "##inite": 7762,
      "arts": 7763,
      "...\"": 7764,
      "habits": 7765,
      "calcium": 7766,
      "strive": 7767,
      "SD": 7768,
      "jumped": 7769,
      "restricted": 7770,
      "BBC": 7771,
      "openly": 7772,
      "resent": 7773,
      "unusual": 7774,
      "okay": 7775,
      "tad": 7776,
      ":)": 7777,
      "तन": 7778,
      "weekly": 7779,
      "Hope": 7780,
      "##ny": 7781,
      "##fe": 7782,
      "ny": 7783,
      "shame": 7784,
      "cheating": 7785,
      "neutral": 7786,
      "notices": 7787,
      "assaulted": 7788,
      "hoped": 7789,
      "transparency": 7790,
      "girlfriend": 7791,
      "##ker": 7792,
      "kin": 7793,
      "मारा": 7794,
      "responding": 7795,
      "Philippines": 7796,
      "निराश": 7797,
      "Call": 7798,
      "##uous": 7799,
      "##cott": 7800,
      "appe": 7801,
      "Neither": 7802,
      "गाड़ी": 7803,
      "funeral": 7804,
      "तरीका": 7805,
      "चूक": 7806,
      "prevented": 7807,
      "प्रोत्साहित": 7808,
      "wherever": 7809,
      "throat": 7810,
      "giant": 7811,
      "rises": 7812,
      "fant": 7813,
      "धोखा": 7814,
      "cops": 7815,
      "Ja": 7816,
      "angle": 7817,
      "neighbor": 7818,
      "span": 7819,
      "landed": 7820,
      "reveals": 7821,
      "struggling": 7822,
      "threw": 7823,
      "9th": 7824,
      "repay": 7825,
      "balanced": 7826,
      "cooperative": 7827,
      "तुमसे": 7828,
      "meantime": 7829,
      "quarters": 7830,
      "##ingly": 7831,
      "##ulates": 7832,
      "adul": 7833,
      "porn": 7834,
      "batch": 7835,
      "consumed": 7836,
      "cogn": 7837,
      "settlement": 7838,
      "iOS": 7839,
      "hang": 7840,
      "##ridge": 7841,
      "विचारों": 7842,
      "suggests": 7843,
      "थोड़ा": 7844,
      "कृपया": 7845,
      "bon": 7846,
      "subsequent": 7847,
      "pall": 7848,
      "111": 7849,
      "recording": 7850,
      "mug": 7851,
      "corridor": 7852,
      "बाधा": 7853,
      "youngest": 7854,
      "UG": 7855,
      "plain": 7856,
      "nephew": 7857,
      "302": 7858,
      "fears": 7859,
      "Nevertheless": 7860,
      "घंटों": 7861,
      "17th": 7862,
      "Rub": 7863,
      "deprived": 7864,
      "reporting": 7865,
      "##urities": 7866,
      "8th": 7867,
      "idols": 7868,
      "motivated": 7869,
      "##osity": 7870,
      "Studies": 7871,
      "suspicion": 7872,
      "laying": 7873,
      "fet": 7874,
      "Student": 7875,
      "pitch": 7876,
      "निष्कर्ष": 7877,
      "collective": 7878,
      "tense": 7879,
      "##lock": 7880,
      "vag": 7881,
      "accepting": 7882,
      "amounts": 7883,
      "fore": 7884,
      "##isive": 7885,
      "commodities": 7886,
      "pays": 7887,
      "hostel": 7888,
      "cm": 7889,
      "deposited": 7890,
      "clothing": 7891,
      "Country": 7892,
      "pulses": 7893,
      "clinical": 7894,
      "separately": 7895,
      "websites": 7896,
      "Ox": 7897,
      "vacation": 7898,
      "perspective": 7899,
      "##AV": 7900,
      "husbands": 7901,
      "DP": 7902,
      "brilliant": 7903,
      "tip": 7904,
      "preced": 7905,
      "cooked": 7906,
      "movements": 7907,
      "wet": 7908,
      "आकर्षित": 7909,
      "nurses": 7910,
      "Tab": 7911,
      "exciting": 7912,
      "declaration": 7913,
      "Kane": 7914,
      "tan": 7915,
      "tum": 7916,
      "thinks": 7917,
      "mund": 7918,
      "finds": 7919,
      "))": 7920,
      "delighted": 7921,
      "spouse": 7922,
      "smell": 7923,
      "adult": 7924,
      "उत्सुक": 7925,
      "violated": 7926,
      "frequent": 7927,
      "setup": 7928,
      "gamb": 7929,
      "climb": 7930,
      "enters": 7931,
      "layer": 7932,
      "apologise": 7933,
      "twitter": 7934,
      "procedures": 7935,
      "ft": 7936,
      "देखे": 7937,
      "Save": 7938,
      "Garden": 7939,
      "accomplish": 7940,
      "##लेम": 7941,
      "##usive": 7942,
      "bottles": 7943,
      "bride": 7944,
      "preach": 7945,
      "resume": 7946,
      "harsh": 7947,
      "safely": 7948,
      "SH": 7949,
      "hungry": 7950,
      "pin": 7951,
      "FA": 7952,
      "refund": 7953,
      "Voting": 7954,
      "कोठ": 7955,
      "Night": 7956,
      "##MI": 7957,
      "शिविर": 7958,
      "odd": 7959,
      "kits": 7960,
      "dancing": 7961,
      "अधिकतर": 7962,
      "lucky": 7963,
      "एकमात्र": 7964,
      "literacy": 7965,
      "haz": 7966,
      "##kin": 7967,
      "techniques": 7968,
      "bathroom": 7969,
      "आमंत्रित": 7970,
      "Sch": 7971,
      "dealt": 7972,
      "donation": 7973,
      "reputation": 7974,
      "Conc": 7975,
      "क्षमा": 7976,
      "##aning": 7977,
      "usage": 7978,
      "server": 7979,
      "thankful": 7980,
      "हंस": 7981,
      "जोड़ी": 7982,
      "interior": 7983,
      "अधिकारों": 7984,
      "fasc": 7985,
      "पेय": 7986,
      "dominated": 7987,
      "cruel": 7988,
      "expelled": 7989,
      "privacy": 7990,
      "referring": 7991,
      "Source": 7992,
      "cuts": 7993,
      "til": 7994,
      "कमरे": 7995,
      "इमारत": 7996,
      "unbeat": 7997,
      "Corporate": 7998,
      "fond": 7999,
      "flooded": 8000,
      "offs": 8001,
      "compete": 8002,
      "describe": 8003,
      "ally": 8004,
      "sorrow": 8005,
      "obtain": 8006,
      "##erving": 8007,
      "fate": 8008,
      "Sis": 8009,
      "printed": 8010,
      "bore": 8011,
      "##iac": 8012,
      "kiss": 8013,
      "sincere": 8014,
      "mayor": 8015,
      "##ouri": 8016,
      "suspicious": 8017,
      "फुटबॉल": 8018,
      "puts": 8019,
      "Broadcasting": 8020,
      "cure": 8021,
      "transformation": 8022,
      "stretch": 8023,
      "alp": 8024,
      "extraordinary": 8025,
      "Complex": 8026,
      "switch": 8027,
      "attracted": 8028,
      "occurs": 8029,
      "overnight": 8030,
      "30th": 8031,
      "Works": 8032,
      "##CA": 8033,
      "Bin": 8034,
      "desk": 8035,
      "अभ्य": 8036,
      "किनारे": 8037,
      "चौथे": 8038,
      "brick": 8039,
      "bio": 8040,
      "impose": 8041,
      "networks": 8042,
      "restaurants": 8043,
      "expecting": 8044,
      "differently": 8045,
      "orange": 8046,
      "Southern": 8047,
      "preserve": 8048,
      "confirmation": 8049,
      "census": 8050,
      "आक्रमण": 8051,
      "inject": 8052,
      "leak": 8053,
      "receipt": 8054,
      "sth": 8055,
      "corn": 8056,
      "aggressive": 8057,
      "submission": 8058,
      "washing": 8059,
      "GO": 8060,
      "monitored": 8061,
      "vessels": 8062,
      "eve": 8063,
      "Maybe": 8064,
      "spin": 8065,
      "##ogen": 8066,
      "applying": 8067,
      "cancel": 8068,
      "receives": 8069,
      "grants": 8070,
      "reacted": 8071,
      "lob": 8072,
      "grandfather": 8073,
      "agreements": 8074,
      "Meet": 8075,
      "dozen": 8076,
      ")\"": 8077,
      "rebel": 8078,
      "झूठ": 8079,
      "Ut": 8080,
      "1965": 8081,
      "stringent": 8082,
      "enforcement": 8083,
      "##ede": 8084,
      "lighting": 8085,
      "ham": 8086,
      "##don": 8087,
      "throne": 8088,
      "##nas": 8089,
      "superior": 8090,
      "carries": 8091,
      "attacking": 8092,
      "##TS": 8093,
      "eternal": 8094,
      "chir": 8095,
      "tact": 8096,
      "feared": 8097,
      "traveling": 8098,
      "DS": 8099,
      "inspection": 8100,
      "heroine": 8101,
      "roots": 8102,
      "benefited": 8103,
      "FY": 8104,
      "##idan": 8105,
      "मूल्यांकन": 8106,
      "MI": 8107,
      "component": 8108,
      "##arrass": 8109,
      "increasingly": 8110,
      "thoroughly": 8111,
      "TC": 8112,
      "mall": 8113,
      "transaction": 8114,
      "crushed": 8115,
      "Jim": 8116,
      "sculpt": 8117,
      "assignment": 8118,
      "Story": 8119,
      "filling": 8120,
      "Jason": 8121,
      "definition": 8122,
      "possibly": 8123,
      "dating": 8124,
      "labs": 8125,
      "explore": 8126,
      "Personal": 8127,
      "Honey": 8128,
      "अपहरण": 8129,
      "knife": 8130,
      "divers": 8131,
      "County": 8132,
      "ब्रेक": 8133,
      "violations": 8134,
      "sack": 8135,
      "नकारात्मक": 8136,
      "crashed": 8137,
      "vip": 8138,
      "launching": 8139,
      "##felt": 8140,
      "##aris": 8141,
      "oblig": 8142,
      "Los": 8143,
      "Alt": 8144,
      "unexpected": 8145,
      "normally": 8146,
      "##ख्त": 8147,
      "hiding": 8148,
      "mate": 8149,
      "1981": 8150,
      "fare": 8151,
      "##str": 8152,
      "Unfortunately": 8153,
      "##meet": 8154,
      "adapt": 8155,
      "yours": 8156,
      "##habi": 8157,
      "##aho": 8158,
      "highlights": 8159,
      "Cut": 8160,
      "capabilities": 8161,
      "लेता": 8162,
      "##ista": 8163,
      "findings": 8164,
      "Link": 8165,
      "es": 8166,
      "artificial": 8167,
      "resentment": 8168,
      "strang": 8169,
      "waves": 8170,
      "##hvi": 8171,
      "bottle": 8172,
      "beloved": 8173,
      "एशियाई": 8174,
      "Forg": 8175,
      "weekend": 8176,
      "copies": 8177,
      "confused": 8178,
      "maybe": 8179,
      "अकेले": 8180,
      "apology": 8181,
      "criticized": 8182,
      "Mike": 8183,
      "sample": 8184,
      "असल": 8185,
      "sends": 8186,
      "incomp": 8187,
      "terminal": 8188,
      "unw": 8189,
      "sink": 8190,
      "Large": 8191,
      "420": 8192,
      "जानने": 8193,
      "##mother": 8194,
      "stuff": 8195,
      "raping": 8196,
      "##uthan": 8197,
      "retain": 8198,
      "Want": 8199,
      "##gl": 8200,
      "grade": 8201,
      "embarrass": 8202,
      "illegally": 8203,
      "मुझसे": 8204,
      "mobil": 8205,
      "Wil": 8206,
      "compromise": 8207,
      "##eat": 8208,
      "Obs": 8209,
      "naturally": 8210,
      "सूरज": 8211,
      "असफल": 8212,
      "लाय": 8213,
      "circulation": 8214,
      "stored": 8215,
      "closing": 8216,
      "reverse": 8217,
      "specially": 8218,
      "repeat": 8219,
      "DV": 8220,
      "heroes": 8221,
      "Final": 8222,
      "guy": 8223,
      "reactions": 8224,
      "engineers": 8225,
      "##atu": 8226,
      "automatically": 8227,
      "##21": 8228,
      "जटिल": 8229,
      "कैसा": 8230,
      "gym": 8231,
      "Early": 8232,
      "switched": 8233,
      "duration": 8234,
      "लाइसेंस": 8235,
      "##active": 8236,
      "Administrative": 8237,
      "discharge": 8238,
      "epic": 8239,
      "comparison": 8240,
      "Jet": 8241,
      "earning": 8242,
      "formally": 8243,
      "##vat": 8244,
      "माफ": 8245,
      "##uffle": 8246,
      "instances": 8247,
      "##bag": 8248,
      "seminar": 8249,
      "hypoc": 8250,
      "reception": 8251,
      "PO": 8252,
      "Stop": 8253,
      "##upid": 8254,
      "hug": 8255,
      "assumed": 8256,
      "printing": 8257,
      "##nar": 8258,
      "describes": 8259,
      "targeting": 8260,
      "requests": 8261,
      "mole": 8262,
      "rainy": 8263,
      "recommendation": 8264,
      "देखो": 8265,
      "ambassador": 8266,
      "gal": 8267,
      "publicly": 8268,
      "##isting": 8269,
      "Eve": 8270,
      "शोर": 8271,
      "elephants": 8272,
      "चीजें": 8273,
      "Mont": 8274,
      "py": 8275,
      "abd": 8276,
      "tasks": 8277,
      "6th": 8278,
      "आएगी": 8279,
      "unnecessary": 8280,
      "Especially": 8281,
      "Veteran": 8282,
      "##ns": 8283,
      "blank": 8284,
      "functional": 8285,
      "##izer": 8286,
      "Much": 8287,
      "testimony": 8288,
      "swimming": 8289,
      "Lou": 8290,
      "gru": 8291,
      "भाग्य": 8292,
      "productivity": 8293,
      "skilled": 8294,
      "Sweden": 8295,
      "breakfast": 8296,
      "raided": 8297,
      "forming": 8298,
      "specifically": 8299,
      "दक्षिणी": 8300,
      "Poor": 8301,
      "पीने": 8302,
      "booking": 8303,
      "subjected": 8304,
      "जाँच": 8305,
      "mystery": 8306,
      "epid": 8307,
      "दोस्तों": 8308,
      "Ho": 8309,
      "खतरनाक": 8310,
      "swearing": 8311,
      "nervous": 8312,
      "##eye": 8313,
      "walks": 8314,
      "समझने": 8315,
      "##vin": 8316,
      "##izz": 8317,
      "centers": 8318,
      "rendered": 8319,
      "deadline": 8320,
      "serial": 8321,
      "Rescue": 8322,
      "ignore": 8323,
      "rational": 8324,
      "संघीय": 8325,
      "discussing": 8326,
      "Harry": 8327,
      "freely": 8328,
      "Henry": 8329,
      "##DE": 8330,
      "परिस्थितियों": 8331,
      "कच्चे": 8332,
      "therapy": 8333,
      "##zar": 8334,
      "##UL": 8335,
      "##min": 8336,
      "पिछली": 8337,
      "potato": 8338,
      "substantial": 8339,
      "torture": 8340,
      "Additionally": 8341,
      "endure": 8342,
      "चू": 8343,
      "computers": 8344,
      "uncon": 8345,
      "apparently": 8346,
      "robbery": 8347,
      "Tower": 8348,
      "searched": 8349,
      "Discuss": 8350,
      "##raph": 8351,
      "लड़ने": 8352,
      "hardly": 8353,
      "stabbed": 8354,
      "cake": 8355,
      "exclusive": 8356,
      "longest": 8357,
      "gonna": 8358,
      "recall": 8359,
      "trap": 8360,
      "Suddenly": 8361,
      "Gab": 8362,
      "lips": 8363,
      "identification": 8364,
      "elsewhere": 8365,
      "Hom": 8366,
      "##rine": 8367,
      "quota": 8368,
      "handled": 8369,
      "creatures": 8370,
      "tons": 8371,
      "प्रेष": 8372,
      "##raine": 8373,
      "contemporary": 8374,
      "applies": 8375,
      "Isaac": 8376,
      "fails": 8377,
      "licence": 8378,
      "acute": 8379,
      "collecting": 8380,
      "treating": 8381,
      "भेजने": 8382,
      "Ped": 8383,
      "intellectual": 8384,
      "##fers": 8385,
      "heated": 8386,
      "Crit": 8387,
      "mindset": 8388,
      "chemicals": 8389,
      "ashamed": 8390,
      "2500": 8391,
      "lor": 8392,
      "GT": 8393,
      "210": 8394,
      "##UN": 8395,
      "GP": 8396,
      "evacuated": 8397,
      "compound": 8398,
      "Atl": 8399,
      "##how": 8400,
      "##antu": 8401,
      "description": 8402,
      "rehabilitation": 8403,
      "##ucing": 8404,
      "##afe": 8405,
      "instruments": 8406,
      "##ogy": 8407,
      "Something": 8408,
      "##RA": 8409,
      "absolute": 8410,
      "ताजा": 8411,
      "cater": 8412,
      "exercises": 8413,
      "##urring": 8414,
      "मजबूर": 8415,
      "Firef": 8416,
      "चीजों": 8417,
      "invested": 8418,
      "reminded": 8419,
      "rack": 8420,
      "cheaper": 8421,
      "improves": 8422,
      "posting": 8423,
      "badminton": 8424,
      "Hey": 8425,
      "scores": 8426,
      "clarity": 8427,
      "resumed": 8428,
      "acquire": 8429,
      "##iser": 8430,
      "fog": 8431,
      "acre": 8432,
      "protocol": 8433,
      "vic": 8434,
      "vine": 8435,
      "##ighter": 8436,
      "heartfelt": 8437,
      "##esy": 8438,
      "propaganda": 8439,
      "hem": 8440,
      "जितना": 8441,
      "क्लास": 8442,
      "deleted": 8443,
      "bacteria": 8444,
      "ages": 8445,
      "encouragement": 8446,
      "Dy": 8447,
      "cave": 8448,
      "shower": 8449,
      "diagnosed": 8450,
      "tries": 8451,
      "perce": 8452,
      "Seeing": 8453,
      "elaborate": 8454,
      "hitting": 8455,
      "disabled": 8456,
      "wooden": 8457,
      "##ju": 8458,
      "##win": 8459,
      "##ono": 8460,
      "अत्यधिक": 8461,
      "Response": 8462,
      "digest": 8463,
      "exha": 8464,
      "expressing": 8465,
      "typically": 8466,
      "onto": 8467,
      "affecting": 8468,
      "complicated": 8469,
      "बुलाया": 8470,
      "acknowledged": 8471,
      "निर्देशित": 8472,
      "ridic": 8473,
      "raises": 8474,
      "twin": 8475,
      "bone": 8476,
      "Angeles": 8477,
      "asleep": 8478,
      "eaten": 8479,
      "accommodation": 8480,
      "हालाँकि": 8481,
      "discern": 8482,
      "pursuing": 8483,
      "proportion": 8484,
      "fined": 8485,
      "furniture": 8486,
      "##ups": 8487,
      "alter": 8488,
      "CW": 8489,
      "spots": 8490,
      "पेड़": 8491,
      "Ford": 8492,
      "यातना": 8493,
      "buyers": 8494,
      "Leave": 8495,
      "baptism": 8496,
      "TB": 8497,
      "cried": 8498,
      "cope": 8499,
      "##zo": 8500,
      "##path": 8501,
      "##zing": 8502,
      "##fia": 8503,
      "compare": 8504,
      "disappeared": 8505,
      "##lessness": 8506,
      "earm": 8507,
      "ultimately": 8508,
      "वक्‍त": 8509,
      "गलती": 8510,
      "unlimited": 8511,
      "##ettes": 8512,
      "reliable": 8513,
      "unemployed": 8514,
      "rating": 8515,
      "respiratory": 8516,
      "Fair": 8517,
      "thur": 8518,
      "##itudes": 8519,
      "focusing": 8520,
      "लड़कियों": 8521,
      "desert": 8522,
      "प्रारंभिक": 8523,
      "accus": 8524,
      "petitioner": 8525,
      "lets": 8526,
      "Task": 8527,
      "kay": 8528,
      "lip": 8529,
      "Hav": 8530,
      "measured": 8531,
      "Looking": 8532,
      "lifetime": 8533,
      "rolled": 8534,
      "copper": 8535,
      "holidays": 8536,
      "shadow": 8537,
      "pledge": 8538,
      "motorcycles": 8539,
      "Treatment": 8540,
      "ज़िंदगी": 8541,
      "voluntary": 8542,
      "thumb": 8543,
      "failing": 8544,
      "vet": 8545,
      "ii": 8546,
      "Mars": 8547,
      "budd": 8548,
      "preferred": 8549,
      "छुट्टी": 8550,
      "spir": 8551,
      "Questions": 8552,
      "##endum": 8553,
      "Yesterday": 8554,
      "Certain": 8555,
      "दिखाने": 8556,
      "सेहत": 8557,
      "Wall": 8558,
      "belt": 8559,
      "believing": 8560,
      "peacefully": 8561,
      "bere": 8562,
      "attraction": 8563,
      "brows": 8564,
      "deserve": 8565,
      "consciousness": 8566,
      "hoping": 8567,
      "##ien": 8568,
      "confined": 8569,
      "##FT": 8570,
      "excessive": 8571,
      "Imm": 8572,
      "आधा": 8573,
      "लैंगिक": 8574,
      "Laun": 8575,
      "dried": 8576,
      "Born": 8577,
      "electrical": 8578,
      "##br": 8579,
      "inspected": 8580,
      "periods": 8581,
      "##king": 8582,
      "##amas": 8583,
      "बोझ": 8584,
      "gor": 8585,
      "Inv": 8586,
      "trusted": 8587,
      "preventing": 8588,
      "substance": 8589,
      "रूम": 8590,
      "बिता": 8591,
      "##omin": 8592,
      "technique": 8593,
      "Days": 8594,
      "stroke": 8595,
      "Late": 8596,
      "##UI": 8597,
      "आओ": 8598,
      "socio": 8599,
      "Update": 8600,
      "##26": 8601,
      "toxic": 8602,
      "loses": 8603,
      "##can": 8604,
      "mirror": 8605,
      "संलग्न": 8606,
      "Doing": 8607,
      "financing": 8608,
      "minus": 8609,
      "apartment": 8610,
      "stern": 8611,
      "basket": 8612,
      "##हेज": 8613,
      "exposure": 8614,
      "qualification": 8615,
      "//": 8616,
      "सोचा": 8617,
      "estimate": 8618,
      "grandmother": 8619,
      "grey": 8620,
      "legacy": 8621,
      "opponents": 8622,
      "कवर": 8623,
      "गंभीरता": 8624,
      "Scott": 8625,
      "paragraph": 8626,
      "alerted": 8627,
      "strain": 8628,
      "refuse": 8629,
      "Belgium": 8630,
      "चिकित्सक": 8631,
      "cement": 8632,
      "intervene": 8633,
      "expanding": 8634,
      "guards": 8635,
      "225": 8636,
      "Hop": 8637,
      "bay": 8638,
      "spray": 8639,
      "cultures": 8640,
      "liberal": 8641,
      "मारने": 8642,
      "sounds": 8643,
      "mini": 8644,
      "Fear": 8645,
      "discour": 8646,
      "sus": 8647,
      "devoted": 8648,
      "खोलने": 8649,
      "Fem": 8650,
      "sund": 8651,
      "कनेक्शन": 8652,
      "temporarily": 8653,
      "searches": 8654,
      "crazy": 8655,
      "THI": 8656,
      "Gav": 8657,
      "माँग": 8658,
      "दिमाग": 8659,
      "bikes": 8660,
      "Andrew": 8661,
      "sr": 8662,
      "ambitious": 8663,
      "breach": 8664,
      "spectrum": 8665,
      "clouds": 8666,
      "loyalty": 8667,
      "chronic": 8668,
      "cancellation": 8669,
      "पुरुषों": 8670,
      "bleeding": 8671,
      "suggestion": 8672,
      "intelligent": 8673,
      "verification": 8674,
      "gel": 8675,
      "साथियों": 8676,
      "cand": 8677,
      "Empowerment": 8678,
      "##oter": 8679,
      "affiliated": 8680,
      "Little": 8681,
      "Patt": 8682,
      "MU": 8683,
      "AND": 8684,
      "disturbed": 8685,
      "drowned": 8686,
      "accessible": 8687,
      "Listen": 8688,
      "speakers": 8689,
      "atrocities": 8690,
      "भाइयों": 8691,
      "wore": 8692,
      "कचरा": 8693,
      "bombs": 8694,
      "irrit": 8695,
      "touching": 8696,
      "---": 8697,
      "shaped": 8698,
      "तलाक": 8699,
      "magazines": 8700,
      "चरित्र": 8701,
      "guns": 8702,
      "##ensed": 8703,
      "validity": 8704,
      "Embassy": 8705,
      "disrupt": 8706,
      "clip": 8707,
      "circles": 8708,
      "soap": 8709,
      "settings": 8710,
      "फार्म": 8711,
      "\")": 8712,
      "बचने": 8713,
      "spare": 8714,
      "maker": 8715,
      "tid": 8716,
      "लापर": 8717,
      "##arin": 8718,
      "bis": 8719,
      "choices": 8720,
      "Winter": 8721,
      "Travel": 8722,
      "reserve": 8723,
      "demonstrated": 8724,
      "inches": 8725,
      "boyfriend": 8726,
      "tent": 8727,
      "eur": 8728,
      "Making": 8729,
      "stopping": 8730,
      "recognise": 8731,
      "womans": 8732,
      "wheels": 8733,
      "खोला": 8734,
      "Ug": 8735,
      "shots": 8736,
      "accusing": 8737,
      "गणित": 8738,
      "decrease": 8739,
      "thirty": 8740,
      "Violence": 8741,
      "loaded": 8742,
      "tunnel": 8743,
      "teaches": 8744,
      "interfere": 8745,
      "arises": 8746,
      "worthy": 8747,
      "overwhelming": 8748,
      "Almost": 8749,
      "छू": 8750,
      "##onscious": 8751,
      "##wak": 8752,
      "torn": 8753,
      "opinions": 8754,
      "females": 8755,
      "chase": 8756,
      "बंधन": 8757,
      "26th": 8758,
      "Physical": 8759,
      "halls": 8760,
      "pu": 8761,
      "जादू": 8762,
      "instant": 8763,
      "tolerate": 8764,
      "withdrew": 8765,
      "Texas": 8766,
      "##esc": 8767,
      "##ulatory": 8768,
      "leaked": 8769,
      "listened": 8770,
      "##chal": 8771,
      "##EP": 8772,
      "whatsoever": 8773,
      "drops": 8774,
      "fearing": 8775,
      "extending": 8776,
      "arriving": 8777,
      "Living": 8778,
      "mathematics": 8779,
      "Always": 8780,
      "approaching": 8781,
      "setback": 8782,
      "combine": 8783,
      "poured": 8784,
      "intensity": 8785,
      "Rich": 8786,
      "pig": 8787,
      "thief": 8788,
      "##mit": 8789,
      "vert": 8790,
      "Reb": 8791,
      "ts": 8792,
      "fingers": 8793,
      "Irr": 8794,
      "संस्थाओं": 8795,
      "boot": 8796,
      "organs": 8797,
      "muscle": 8798,
      "demonstrate": 8799,
      "720": 8800,
      "Knowing": 8801,
      "##obb": 8802,
      "##RS": 8803,
      "feedback": 8804,
      "muscles": 8805,
      "अध्याय": 8806,
      "Fortunately": 8807,
      "RA": 8808,
      "males": 8809,
      "Shab": 8810,
      "##TO": 8811,
      "wrath": 8812,
      "##jo": 8813,
      "Interest": 8814,
      "showcase": 8815,
      "spared": 8816,
      "##iner": 8817,
      "wheeler": 8818,
      "unlikely": 8819,
      "##CO": 8820,
      "##निर": 8821,
      "owns": 8822,
      "guys": 8823,
      "tatt": 8824,
      "Dear": 8825,
      "assert": 8826,
      "mamm": 8827,
      "literally": 8828,
      "Someone": 8829,
      "meaningful": 8830,
      "brutally": 8831,
      "Gro": 8832,
      "sacrificed": 8833,
      "mile": 8834,
      "abused": 8835,
      "survival": 8836,
      "शीर्षक": 8837,
      "twelve": 8838,
      "designer": 8839,
      "dash": 8840,
      "hole": 8841,
      "Graduate": 8842,
      "Aryan": 8843,
      "oriented": 8844,
      "contacts": 8845,
      "vom": 8846,
      "wouldnt": 8847,
      "tempt": 8848,
      "coins": 8849,
      "162": 8850,
      "siblings": 8851,
      "Furthermore": 8852,
      "lightning": 8853,
      "उद्धरण": 8854,
      "##ulative": 8855,
      "decent": 8856,
      "तरीकों": 8857,
      "appeals": 8858,
      "Range": 8859,
      "reads": 8860,
      "##inted": 8861,
      "Phone": 8862,
      "denies": 8863,
      "charity": 8864,
      "सेक्स": 8865,
      "versions": 8866,
      "##bre": 8867,
      "subd": 8868,
      "MM": 8869,
      "Pharm": 8870,
      "kidnapped": 8871,
      "controlling": 8872,
      "खबरों": 8873,
      "portfolio": 8874,
      "concentration": 8875,
      "lasted": 8876,
      "lord": 8877,
      "##ui": 8878,
      "destinations": 8879,
      "MO": 8880,
      "dressed": 8881,
      "thread": 8882,
      "करूंगा": 8883,
      "selfish": 8884,
      "discovery": 8885,
      "Dead": 8886,
      "inspire": 8887,
      "Problem": 8888,
      "Hash": 8889,
      "donate": 8890,
      "drinks": 8891,
      "##भाविक": 8892,
      "थक": 8893,
      "prone": 8894,
      "replacement": 8895,
      "conversion": 8896,
      "economically": 8897,
      "fo": 8898,
      "##HS": 8899,
      "consistent": 8900,
      "surrender": 8901,
      "subt": 8902,
      "Hur": 8903,
      "praying": 8904,
      "essay": 8905,
      "बताने": 8906,
      "clay": 8907,
      "Chicago": 8908,
      "नाक": 8909,
      "halted": 8910,
      "बचे": 8911,
      "brutal": 8912,
      "pose": 8913,
      "विशेषता": 8914,
      "rejects": 8915,
      "decides": 8916,
      "निकलने": 8917,
      "Expo": 8918,
      "Yeah": 8919,
      "apprised": 8920,
      "GPS": 8921,
      "##reci": 8922,
      "label": 8923,
      "boil": 8924,
      "notable": 8925,
      "unse": 8926,
      "Whenever": 8927,
      "rag": 8928,
      "recovering": 8929,
      "AG": 8930,
      "Going": 8931,
      "Birthday": 8932,
      "undertaking": 8933,
      "फेंक": 8934,
      "meditation": 8935,
      "Butt": 8936,
      "bil": 8937,
      "awaiting": 8938,
      "##cation": 8939,
      "widow": 8940,
      "Strong": 8941,
      "strategies": 8942,
      "fulfilling": 8943,
      "neglect": 8944,
      "##rified": 8945,
      "bureauc": 8946,
      "इंटरव्यू": 8947,
      "valued": 8948,
      "Doctor": 8949,
      "economics": 8950,
      "गहरी": 8951,
      "progressive": 8952,
      "ownership": 8953,
      "##eing": 8954,
      "Run": 8955,
      "harassed": 8956,
      "dirty": 8957,
      "##usa": 8958,
      "Nan": 8959,
      "laughed": 8960,
      "tone": 8961,
      "Degree": 8962,
      "##SA": 8963,
      "sour": 8964,
      "voices": 8965,
      "LT": 8966,
      "laughing": 8967,
      "anxious": 8968,
      "##ugs": 8969,
      "Whoever": 8970,
      "landslide": 8971,
      "communications": 8972,
      "गले": 8973,
      "करीबी": 8974,
      "dand": 8975,
      "marriages": 8976,
      "disorder": 8977,
      "groom": 8978,
      "radical": 8979,
      "बिट": 8980,
      "topics": 8981,
      "Cash": 8982,
      "minim": 8983,
      "presents": 8984,
      "24th": 8985,
      "spark": 8986,
      "churches": 8987,
      "funny": 8988,
      "scattered": 8989,
      "##erable": 8990,
      "Scotland": 8991,
      "dealers": 8992,
      "beside": 8993,
      "deaf": 8994,
      "Doub": 8995,
      "viewers": 8996,
      "Ukraine": 8997,
      "Awareness": 8998,
      "utmost": 8999,
      "collections": 9000,
      "entertain": 9001,
      "Squad": 9002,
      "ON": 9003,
      "कपड़े": 9004,
      "##mate": 9005,
      "horses": 9006,
      "Question": 9007,
      "extends": 9008,
      "##zy": 9009,
      "##amor": 9010,
      "disclose": 9011,
      "presenting": 9012,
      "meter": 9013,
      "पेशेवर": 9014,
      "Melbourne": 9015,
      "Salem": 9016,
      "feeding": 9017,
      "Lion": 9018,
      "Jong": 9019,
      "entity": 9020,
      "fluid": 9021,
      "Different": 9022,
      "##tan": 9023,
      "insisted": 9024,
      "communicate": 9025,
      "forum": 9026,
      "contractor": 9027,
      "stops": 9028,
      "Denmark": 9029,
      "intr": 9030,
      "experiencing": 9031,
      "?”": 9032,
      "Shes": 9033,
      "defense": 9034,
      "##ester": 9035,
      "FOR": 9036,
      "Except": 9037,
      "hygiene": 9038,
      "convenient": 9039,
      "DD": 9040,
      "##27": 9041,
      "chin": 9042,
      "nap": 9043,
      "Wales": 9044,
      "unconscious": 9045,
      "grandson": 9046,
      "inheritance": 9047,
      "##essional": 9048,
      "nursing": 9049,
      "abst": 9050,
      "23rd": 9051,
      "##kins": 9052,
      "CV": 9053,
      "guess": 9054,
      "दबा": 9055,
      "knee": 9056,
      "paras": 9057,
      "newborn": 9058,
      "tun": 9059,
      "reliant": 9060,
      "Nm": 9061,
      "##ded": 9062,
      "cousin": 9063,
      "Hearing": 9064,
      "SAR": 9065,
      "stays": 9066,
      "perception": 9067,
      "mature": 9068,
      "##________________": 9069,
      "दर्जन": 9070,
      "Success": 9071,
      "steady": 9072,
      "pamp": 9073,
      "grievances": 9074,
      "alarming": 9075,
      "यकीन": 9076,
      "बचपन": 9077,
      "drown": 9078,
      "##ND": 9079,
      "Okay": 9080,
      "indefinite": 9081,
      "gaining": 9082,
      "destroying": 9083,
      "chaos": 9084,
      "Less": 9085,
      "##inct": 9086,
      "choosing": 9087,
      "crush": 9088,
      "deemed": 9089,
      "##lix": 9090,
      "rented": 9091,
      "ought": 9092,
      "urges": 9093,
      "Until": 9094,
      "##oar": 9095,
      "Jackson": 9096,
      "infant": 9097,
      "आत्मविश्वास": 9098,
      "cups": 9099,
      "nuts": 9100,
      "dwelling": 9101,
      "irre": 9102,
      "stance": 9103,
      "Lov": 9104,
      "nights": 9105,
      "Often": 9106,
      "नींद": 9107,
      "priorities": 9108,
      "Luc": 9109,
      "hail": 9110,
      "directing": 9111,
      "shameful": 9112,
      "smiled": 9113,
      "existed": 9114,
      "hatch": 9115,
      "ung": 9116,
      "sut": 9117,
      "pocket": 9118,
      "sticks": 9119,
      "##pent": 9120,
      "Nana": 9121,
      "अस्व": 9122,
      "ki": 9123,
      "Aman": 9124,
      "buck": 9125,
      "distant": 9126,
      "chart": 9127,
      "ours": 9128,
      "uncom": 9129,
      "##TT": 9130,
      "transition": 9131,
      "contam": 9132,
      "oral": 9133,
      "##eks": 9134,
      "जोड़ने": 9135,
      "Sharing": 9136,
      "shells": 9137,
      "assume": 9138,
      "funded": 9139,
      "reass": 9140,
      "debris": 9141,
      "HS": 9142,
      "850": 9143,
      "sole": 9144,
      "खींच": 9145,
      "फ़ाइल": 9146,
      "प्रेमी": 9147,
      "Recru": 9148,
      "advertisements": 9149,
      "immigrants": 9150,
      "contingent": 9151,
      "queen": 9152,
      "basically": 9153,
      "##phone": 9154,
      "investing": 9155,
      "shouting": 9156,
      "bicycle": 9157,
      "allowance": 9158,
      "##----------------": 9159,
      "colleague": 9160,
      "intensify": 9161,
      "##keepers": 9162,
      "gentle": 9163,
      "genetic": 9164,
      "subs": 9165,
      "22nd": 9166,
      "chased": 9167,
      "PRO": 9168,
      "landsc": 9169,
      "##VA": 9170,
      "objections": 9171,
      "packed": 9172,
      "पढ़ने": 9173,
      "नियत": 9174,
      "revoked": 9175,
      "signature": 9176,
      "173": 9177,
      "convenience": 9178,
      "##itated": 9179,
      "##oji": 9180,
      "turmoil": 9181,
      "considers": 9182,
      "evaluation": 9183,
      "cheated": 9184,
      "सावधान": 9185,
      "Repeat": 9186,
      "spite": 9187,
      "forbidden": 9188,
      "argue": 9189,
      "scholarship": 9190,
      "Got": 9191,
      "laptop": 9192,
      "रुचि": 9193,
      "bedroom": 9194,
      "inmates": 9195,
      "midnight": 9196,
      "Clearly": 9197,
      "डीसी": 9198,
      "छोड़ने": 9199,
      "Responding": 9200,
      "saint": 9201,
      "##otyp": 9202,
      "rely": 9203,
      "Kav": 9204,
      "हिल": 9205,
      "pushing": 9206,
      "inspiring": 9207,
      "Drugs": 9208,
      "smiling": 9209,
      "classified": 9210,
      "Month": 9211,
      "messenger": 9212,
      "embassy": 9213,
      "##eling": 9214,
      "relent": 9215,
      "Assistance": 9216,
      "Corn": 9217,
      "legally": 9218,
      "arose": 9219,
      "rarely": 9220,
      "excitement": 9221,
      "acknowledge": 9222,
      "gay": 9223,
      "debit": 9224,
      "bears": 9225,
      "hog": 9226,
      "refuses": 9227,
      "contributing": 9228,
      "texts": 9229,
      "enabling": 9230,
      "suv": 9231,
      "doubled": 9232,
      "Download": 9233,
      "Jess": 9234,
      "taxi": 9235,
      "rebu": 9236,
      "दण्ड": 9237,
      "##gone": 9238,
      "हमलों": 9239,
      "##हट": 9240,
      "pari": 9241,
      "Unable": 9242,
      "shouldnt": 9243,
      "cardiac": 9244,
      "hosting": 9245,
      "paired": 9246,
      "Attorney": 9247,
      "adoption": 9248,
      "benefitted": 9249,
      "भ्रम": 9250,
      "transformed": 9251,
      "##olu": 9252,
      "Tum": 9253,
      "delicious": 9254,
[...]
